// #include "best_model.hpp"

// const unsigned char loong_cnn_model_simple_ep200_tflite[] = {
//   0x1c, 0x00, 0x00, 0x00, 0x54, 0x46, 0x4c, 0x33, 0x14, 0x00, 0x20, 0x00,
//   0x1c, 0x00, 0x18, 0x00, 0x14, 0x00, 0x10, 0x00, 0x0c, 0x00, 0x00, 0x00,
//   0x08, 0x00, 0x04, 0x00, 0x14, 0x00, 0x00, 0x00, 0x1c, 0x00, 0x00, 0x00,
//   0x80, 0x00, 0x00, 0x00, 0xd0, 0x00, 0x00, 0x00, 0xc4, 0x23, 0x00, 0x00,
//   0xd4, 0x23, 0x00, 0x00, 0xf8, 0x63, 0x00, 0x00, 0x03, 0x00, 0x00, 0x00,
//   0x01, 0x00, 0x00, 0x00, 0x04, 0x00, 0x00, 0x00, 0x9e, 0xd9, 0xff, 0xff,
//   0x0c, 0x00, 0x00, 0x00, 0x1c, 0x00, 0x00, 0x00, 0x38, 0x00, 0x00, 0x00,
//   0x0f, 0x00, 0x00, 0x00, 0x73, 0x65, 0x72, 0x76, 0x69, 0x6e, 0x67, 0x5f,
//   0x64, 0x65, 0x66, 0x61, 0x75, 0x6c, 0x74, 0x00, 0x01, 0x00, 0x00, 0x00,
//   0x04, 0x00, 0x00, 0x00, 0xf4, 0xd1, 0xff, 0xff, 0x65, 0x00, 0x00, 0x00,
//   0x04, 0x00, 0x00, 0x00, 0x07, 0x00, 0x00, 0x00, 0x64, 0x65, 0x6e, 0x73,
//   0x65, 0x5f, 0x32, 0x00, 0x01, 0x00, 0x00, 0x00, 0x04, 0x00, 0x00, 0x00,
//   0x4e, 0xd2, 0xff, 0xff, 0x04, 0x00, 0x00, 0x00, 0x07, 0x00, 0x00, 0x00,
//   0x69, 0x6e, 0x70, 0x75, 0x74, 0x5f, 0x31, 0x00, 0x02, 0x00, 0x00, 0x00,
//   0x2c, 0x00, 0x00, 0x00, 0x04, 0x00, 0x00, 0x00, 0x34, 0xd2, 0xff, 0xff,
//   0x68, 0x00, 0x00, 0x00, 0x04, 0x00, 0x00, 0x00, 0x13, 0x00, 0x00, 0x00,
//   0x43, 0x4f, 0x4e, 0x56, 0x45, 0x52, 0x53, 0x49, 0x4f, 0x4e, 0x5f, 0x4d,
//   0x45, 0x54, 0x41, 0x44, 0x41, 0x54, 0x41, 0x00, 0x58, 0xd2, 0xff, 0xff,
//   0x67, 0x00, 0x00, 0x00, 0x04, 0x00, 0x00, 0x00, 0x13, 0x00, 0x00, 0x00,
//   0x6d, 0x69, 0x6e, 0x5f, 0x72, 0x75, 0x6e, 0x74, 0x69, 0x6d, 0x65, 0x5f,
//   0x76, 0x65, 0x72, 0x73, 0x69, 0x6f, 0x6e, 0x00, 0x69, 0x00, 0x00, 0x00,
//   0xf0, 0x22, 0x00, 0x00, 0xe8, 0x22, 0x00, 0x00, 0xc8, 0x22, 0x00, 0x00,
//   0xa8, 0x22, 0x00, 0x00, 0x88, 0x22, 0x00, 0x00, 0x60, 0x22, 0x00, 0x00,
//   0x38, 0x22, 0x00, 0x00, 0x04, 0x22, 0x00, 0x00, 0xdc, 0x21, 0x00, 0x00,
//   0xb4, 0x21, 0x00, 0x00, 0x8c, 0x21, 0x00, 0x00, 0x64, 0x21, 0x00, 0x00,
//   0x3c, 0x21, 0x00, 0x00, 0x14, 0x21, 0x00, 0x00, 0xe0, 0x20, 0x00, 0x00,
//   0xac, 0x20, 0x00, 0x00, 0x64, 0x20, 0x00, 0x00, 0x30, 0x20, 0x00, 0x00,
//   0xfc, 0x1f, 0x00, 0x00, 0xb4, 0x1f, 0x00, 0x00, 0xcc, 0x1e, 0x00, 0x00,
//   0x78, 0x1d, 0x00, 0x00, 0x90, 0x1c, 0x00, 0x00, 0x5c, 0x1c, 0x00, 0x00,
//   0x74, 0x1b, 0x00, 0x00, 0x8c, 0x1a, 0x00, 0x00, 0x44, 0x1a, 0x00, 0x00,
//   0xf0, 0x18, 0x00, 0x00, 0xe8, 0x16, 0x00, 0x00, 0x94, 0x15, 0x00, 0x00,
//   0xd4, 0x13, 0x00, 0x00, 0x84, 0x13, 0x00, 0x00, 0x34, 0x13, 0x00, 0x00,
//   0xc4, 0x12, 0x00, 0x00, 0xa4, 0x12, 0x00, 0x00, 0x84, 0x12, 0x00, 0x00,
//   0x64, 0x12, 0x00, 0x00, 0x7c, 0x11, 0x00, 0x00, 0xdc, 0x10, 0x00, 0x00,
//   0xf4, 0x0f, 0x00, 0x00, 0x0c, 0x0f, 0x00, 0x00, 0x04, 0x0d, 0x00, 0x00,
//   0xb0, 0x0b, 0x00, 0x00, 0x90, 0x0b, 0x00, 0x00, 0x88, 0x09, 0x00, 0x00,
//   0x68, 0x06, 0x00, 0x00, 0x50, 0x06, 0x00, 0x00, 0x3c, 0x06, 0x00, 0x00,
//   0x28, 0x06, 0x00, 0x00, 0x14, 0x06, 0x00, 0x00, 0x0c, 0x06, 0x00, 0x00,
//   0xf0, 0x05, 0x00, 0x00, 0x58, 0x04, 0x00, 0x00, 0xc0, 0x02, 0x00, 0x00,
//   0x08, 0x02, 0x00, 0x00, 0x00, 0x02, 0x00, 0x00, 0xf8, 0x01, 0x00, 0x00,
//   0xf0, 0x01, 0x00, 0x00, 0xe8, 0x01, 0x00, 0x00, 0xe0, 0x01, 0x00, 0x00,
//   0xd8, 0x01, 0x00, 0x00, 0xd0, 0x01, 0x00, 0x00, 0xc8, 0x01, 0x00, 0x00,
//   0xc0, 0x01, 0x00, 0x00, 0xb8, 0x01, 0x00, 0x00, 0xb0, 0x01, 0x00, 0x00,
//   0xa8, 0x01, 0x00, 0x00, 0xa0, 0x01, 0x00, 0x00, 0x98, 0x01, 0x00, 0x00,
//   0x90, 0x01, 0x00, 0x00, 0x88, 0x01, 0x00, 0x00, 0x80, 0x01, 0x00, 0x00,
//   0x78, 0x01, 0x00, 0x00, 0x70, 0x01, 0x00, 0x00, 0x68, 0x01, 0x00, 0x00,
//   0x60, 0x01, 0x00, 0x00, 0x58, 0x01, 0x00, 0x00, 0x50, 0x01, 0x00, 0x00,
//   0x48, 0x01, 0x00, 0x00, 0x40, 0x01, 0x00, 0x00, 0x38, 0x01, 0x00, 0x00,
//   0x30, 0x01, 0x00, 0x00, 0x28, 0x01, 0x00, 0x00, 0x20, 0x01, 0x00, 0x00,
//   0x18, 0x01, 0x00, 0x00, 0x10, 0x01, 0x00, 0x00, 0x08, 0x01, 0x00, 0x00,
//   0x00, 0x01, 0x00, 0x00, 0xf8, 0x00, 0x00, 0x00, 0xf0, 0x00, 0x00, 0x00,
//   0xe8, 0x00, 0x00, 0x00, 0xe0, 0x00, 0x00, 0x00, 0xd8, 0x00, 0x00, 0x00,
//   0xd0, 0x00, 0x00, 0x00, 0xc8, 0x00, 0x00, 0x00, 0xc0, 0x00, 0x00, 0x00,
//   0xb8, 0x00, 0x00, 0x00, 0xb0, 0x00, 0x00, 0x00, 0xa8, 0x00, 0x00, 0x00,
//   0xa0, 0x00, 0x00, 0x00, 0x98, 0x00, 0x00, 0x00, 0x90, 0x00, 0x00, 0x00,
//   0x88, 0x00, 0x00, 0x00, 0x68, 0x00, 0x00, 0x00, 0x04, 0x00, 0x00, 0x00,
//   0x5e, 0xd4, 0xff, 0xff, 0x04, 0x00, 0x00, 0x00, 0x54, 0x00, 0x00, 0x00,
//   0x0c, 0x00, 0x00, 0x00, 0x08, 0x00, 0x0e, 0x00, 0x08, 0x00, 0x04, 0x00,
//   0x08, 0x00, 0x00, 0x00, 0x10, 0x00, 0x00, 0x00, 0x24, 0x00, 0x00, 0x00,
//   0x00, 0x00, 0x06, 0x00, 0x08, 0x00, 0x04, 0x00, 0x06, 0x00, 0x00, 0x00,
//   0x04, 0x00, 0x00, 0x00, 0x00, 0x00, 0x00, 0x00, 0x00, 0x00, 0x0a, 0x00,
//   0x10, 0x00, 0x0c, 0x00, 0x08, 0x00, 0x04, 0x00, 0x0a, 0x00, 0x00, 0x00,
//   0x02, 0x00, 0x00, 0x00, 0x02, 0x00, 0x00, 0x00, 0x04, 0x00, 0x00, 0x00,
//   0x06, 0x00, 0x00, 0x00, 0x32, 0x2e, 0x31, 0x33, 0x2e, 0x30, 0x00, 0x00,
//   0xbe, 0xd4, 0xff, 0xff, 0x04, 0x00, 0x00, 0x00, 0x10, 0x00, 0x00, 0x00,
//   0x31, 0x2e, 0x31, 0x34, 0x2e, 0x30, 0x00, 0x00, 0x00, 0x00, 0x00, 0x00,
//   0x00, 0x00, 0x00, 0x00, 0x34, 0x9e, 0xff, 0xff, 0x38, 0x9e, 0xff, 0xff,
//   0x3c, 0x9e, 0xff, 0xff, 0x40, 0x9e, 0xff, 0xff, 0x44, 0x9e, 0xff, 0xff,
//   0x48, 0x9e, 0xff, 0xff, 0x4c, 0x9e, 0xff, 0xff, 0x50, 0x9e, 0xff, 0xff,
//   0x54, 0x9e, 0xff, 0xff, 0x58, 0x9e, 0xff, 0xff, 0x5c, 0x9e, 0xff, 0xff,
//   0x60, 0x9e, 0xff, 0xff, 0x64, 0x9e, 0xff, 0xff, 0x68, 0x9e, 0xff, 0xff,
//   0x6c, 0x9e, 0xff, 0xff, 0x70, 0x9e, 0xff, 0xff, 0x74, 0x9e, 0xff, 0xff,
//   0x78, 0x9e, 0xff, 0xff, 0x7c, 0x9e, 0xff, 0xff, 0x80, 0x9e, 0xff, 0xff,
//   0x84, 0x9e, 0xff, 0xff, 0x88, 0x9e, 0xff, 0xff, 0x8c, 0x9e, 0xff, 0xff,
//   0x90, 0x9e, 0xff, 0xff, 0x94, 0x9e, 0xff, 0xff, 0x98, 0x9e, 0xff, 0xff,
//   0x9c, 0x9e, 0xff, 0xff, 0xa0, 0x9e, 0xff, 0xff, 0xa4, 0x9e, 0xff, 0xff,
//   0xa8, 0x9e, 0xff, 0xff, 0xac, 0x9e, 0xff, 0xff, 0xb0, 0x9e, 0xff, 0xff,
//   0xb4, 0x9e, 0xff, 0xff, 0xb8, 0x9e, 0xff, 0xff, 0xbc, 0x9e, 0xff, 0xff,
//   0xc0, 0x9e, 0xff, 0xff, 0xc4, 0x9e, 0xff, 0xff, 0xc8, 0x9e, 0xff, 0xff,
//   0xcc, 0x9e, 0xff, 0xff, 0xd0, 0x9e, 0xff, 0xff, 0xd4, 0x9e, 0xff, 0xff,
//   0xd8, 0x9e, 0xff, 0xff, 0xdc, 0x9e, 0xff, 0xff, 0xe0, 0x9e, 0xff, 0xff,
//   0xe4, 0x9e, 0xff, 0xff, 0xe8, 0x9e, 0xff, 0xff, 0xec, 0x9e, 0xff, 0xff,
//   0xf0, 0x9e, 0xff, 0xff, 0x9a, 0xd5, 0xff, 0xff, 0x04, 0x00, 0x00, 0x00,
//   0xa8, 0x00, 0x00, 0x00, 0xad, 0x0a, 0xd0, 0x3d, 0xa0, 0xab, 0x37, 0xbf,
//   0xbf, 0x56, 0x19, 0xbf, 0xcc, 0x0e, 0xc2, 0xbe, 0x7a, 0x19, 0xf6, 0x3c,
//   0x8c, 0x46, 0x94, 0x3c, 0x49, 0x1a, 0xfa, 0x3e, 0x3b, 0xd3, 0x8c, 0xbf,
//   0x86, 0xb7, 0x71, 0x3f, 0xd8, 0x9e, 0x67, 0xbf, 0x59, 0x23, 0x15, 0x3f,
//   0x03, 0xb3, 0xe7, 0xbe, 0x1b, 0xdb, 0x5d, 0xbc, 0x6f, 0x34, 0x11, 0x3f,
//   0xd7, 0xa2, 0xea, 0xbf, 0x8c, 0x53, 0x9c, 0xbf, 0x84, 0xc7, 0x29, 0x3f,
//   0x10, 0x7e, 0x7c, 0x3f, 0x5e, 0x29, 0x5e, 0xbf, 0x91, 0x05, 0xb8, 0xbf,
//   0xa1, 0x91, 0x27, 0x3f, 0x7e, 0x90, 0x32, 0xbe, 0xd0, 0x74, 0x07, 0xc0,
//   0x1b, 0x84, 0x05, 0x3f, 0x3b, 0x85, 0xc9, 0xbf, 0x65, 0xad, 0x0c, 0x3f,
//   0xc9, 0x1d, 0xa6, 0xbf, 0x3f, 0x71, 0x2c, 0x3f, 0xbb, 0x62, 0xbd, 0xbb,
//   0x1f, 0x3b, 0x64, 0x3f, 0xa8, 0x6f, 0x00, 0x3f, 0x69, 0xda, 0x94, 0xbd,
//   0x3c, 0xeb, 0x92, 0x3f, 0xd7, 0x14, 0x92, 0x3f, 0x8a, 0x9b, 0x5e, 0xbf,
//   0x68, 0x02, 0xc9, 0xbd, 0x36, 0x87, 0x10, 0xbe, 0xcd, 0xfb, 0x83, 0x3e,
//   0x96, 0x0c, 0xfd, 0x3e, 0x6c, 0xff, 0x25, 0xbd, 0x00, 0x0c, 0x82, 0x3f,
//   0x47, 0x65, 0x2b, 0xbf, 0x4e, 0xd6, 0xff, 0xff, 0x04, 0x00, 0x00, 0x00,
//   0x88, 0x01, 0x00, 0x00, 0xf8, 0x91, 0x2f, 0xbf, 0xca, 0x22, 0xb2, 0xbf,
//   0x93, 0x9f, 0x80, 0xbe, 0x99, 0xc3, 0x61, 0xbe, 0x86, 0xd7, 0x30, 0xbf,
//   0x42, 0x21, 0x4d, 0x3f, 0x18, 0x72, 0x2c, 0x3f, 0xa2, 0x14, 0xdf, 0xbe,
//   0xf4, 0x96, 0x8b, 0xbf, 0x10, 0xde, 0xd0, 0x3e, 0x79, 0x34, 0x10, 0xbf,
//   0x5c, 0x7e, 0x48, 0x3f, 0x60, 0x4e, 0x67, 0xbf, 0xd9, 0xd1, 0x68, 0x3f,
//   0x76, 0x1d, 0x89, 0x3f, 0xbd, 0xe8, 0x16, 0xbd, 0x66, 0x75, 0x3f, 0xbe,
//   0x8d, 0x81, 0x9d, 0xbf, 0xa9, 0x32, 0x90, 0x3f, 0x2e, 0x75, 0x17, 0xbf,
//   0x62, 0x5c, 0xb0, 0x3e, 0x15, 0x74, 0xb0, 0x3e, 0xf7, 0x92, 0x85, 0x3f,
//   0x30, 0x56, 0x19, 0x3e, 0x56, 0xa9, 0xb0, 0xbf, 0x6f, 0x30, 0x57, 0xbe,
//   0x16, 0xe2, 0xf7, 0xbe, 0xbf, 0x04, 0x01, 0xc0, 0x61, 0x98, 0x21, 0xbf,
//   0xdc, 0x87, 0x9d, 0xbf, 0x9f, 0x4b, 0xe6, 0x3d, 0x04, 0x8a, 0xbd, 0xbe,
//   0xde, 0x79, 0x22, 0x3f, 0x4a, 0xbe, 0x55, 0xbf, 0x8e, 0xc4, 0x52, 0x3f,
//   0x29, 0x10, 0x30, 0xbf, 0x4f, 0xe8, 0xa9, 0xbf, 0xf5, 0xa2, 0xe1, 0x3e,
//   0x73, 0xf0, 0x7b, 0xbf, 0x38, 0x19, 0x02, 0x3f, 0xba, 0x43, 0x96, 0xbd,
//   0xde, 0x2c, 0x3f, 0x3f, 0x65, 0xe7, 0x8b, 0x3e, 0x4d, 0x48, 0xca, 0x3e,
//   0xad, 0x0c, 0xab, 0xbe, 0x4f, 0xa9, 0x16, 0x3f, 0xc2, 0x72, 0x82, 0xbf,
//   0x37, 0x30, 0x0f, 0x3f, 0x90, 0x85, 0x0e, 0xc0, 0x51, 0x9d, 0x28, 0x3f,
//   0xe0, 0xf0, 0x73, 0x3e, 0x02, 0xce, 0xed, 0xbe, 0xdb, 0x43, 0xd2, 0xbf,
//   0x39, 0x37, 0x33, 0x3f, 0x0b, 0x9b, 0x04, 0xbf, 0x93, 0x9f, 0x29, 0x3f,
//   0xad, 0x28, 0xa2, 0xbf, 0x2e, 0x4e, 0x5e, 0xbf, 0x7b, 0x45, 0x0e, 0xbe,
//   0x22, 0x56, 0xc2, 0x3e, 0xb0, 0x58, 0x0f, 0xc0, 0x27, 0x79, 0x06, 0x3f,
//   0x3e, 0x8b, 0x05, 0xbf, 0xac, 0xa9, 0x33, 0x3f, 0x6d, 0xd5, 0xd7, 0x3e,
//   0x70, 0x1b, 0xb5, 0xbe, 0x0f, 0x49, 0xb1, 0xbf, 0xa3, 0xb0, 0x62, 0x3f,
//   0x79, 0x4b, 0x2d, 0xbf, 0x68, 0xc3, 0x02, 0x3f, 0x15, 0x27, 0x96, 0xbf,
//   0xec, 0xa8, 0x89, 0xbf, 0x5a, 0x97, 0x88, 0xbe, 0xb7, 0x13, 0x9a, 0x3e,
//   0x10, 0x33, 0x27, 0xbe, 0xaf, 0x86, 0xbd, 0x3e, 0x35, 0x74, 0x26, 0x3f,
//   0x68, 0xb3, 0x8b, 0x3e, 0x9f, 0x1b, 0x72, 0x3f, 0x64, 0x29, 0xb6, 0xbe,
//   0xb0, 0xb2, 0xa1, 0xbf, 0xcc, 0xb1, 0x22, 0xbe, 0xd3, 0xee, 0x49, 0xbf,
//   0xb0, 0x40, 0xac, 0xbf, 0x3f, 0x27, 0x32, 0xbf, 0x8e, 0xcc, 0x8f, 0xbf,
//   0xd9, 0x47, 0x3a, 0xbe, 0x09, 0x65, 0x65, 0xbf, 0x98, 0xf9, 0xe9, 0x3d,
//   0x76, 0x56, 0xa5, 0xbe, 0xc9, 0xf9, 0x9d, 0x3f, 0x61, 0x4e, 0x31, 0x3e,
//   0xc4, 0x52, 0xd7, 0x3c, 0x85, 0xe3, 0x40, 0xbe, 0x5b, 0x2d, 0xed, 0xbd,
//   0x9d, 0x78, 0x37, 0xbf, 0xf8, 0xc4, 0x68, 0x3f, 0x0e, 0x0c, 0xf3, 0xbf,
//   0xe2, 0xd7, 0xff, 0xff, 0x04, 0x00, 0x00, 0x00, 0x88, 0x01, 0x00, 0x00,
//   0x88, 0xa3, 0x3b, 0xbf, 0x67, 0xf9, 0xe1, 0xbe, 0xcd, 0x26, 0xa0, 0x3e,
//   0xac, 0x96, 0x8b, 0x3f, 0xfb, 0x5d, 0xcd, 0x3e, 0x31, 0x70, 0x28, 0xbe,
//   0x5e, 0xc8, 0x37, 0x3e, 0x98, 0xed, 0x2c, 0x3f, 0xc3, 0x37, 0xa1, 0xbe,
//   0xe6, 0xed, 0x2f, 0x3f, 0x89, 0x8d, 0x9e, 0xbe, 0xc8, 0x94, 0x38, 0x3f,
//   0xbf, 0x7e, 0xd5, 0xbe, 0x63, 0xca, 0xee, 0x3e, 0x54, 0x9e, 0xb1, 0xbe,
//   0x16, 0xf6, 0x0a, 0xbf, 0x90, 0x4b, 0x3a, 0xbe, 0xd8, 0x45, 0x91, 0x3f,
//   0xf8, 0xb2, 0xd3, 0x3e, 0x9d, 0x3b, 0x48, 0xbe, 0x79, 0x7c, 0x72, 0x3f,
//   0x66, 0xcb, 0x3f, 0x3e, 0x26, 0xa7, 0x81, 0x3c, 0x91, 0xcf, 0x63, 0x3f,
//   0x67, 0xf0, 0x81, 0xbf, 0xed, 0x80, 0xa0, 0x3f, 0x0f, 0x29, 0x5b, 0x37,
//   0x04, 0x27, 0x3f, 0x3f, 0xbb, 0x2d, 0x0c, 0xbf, 0xc8, 0x36, 0xde, 0xbe,
//   0xb0, 0x92, 0xe6, 0xbe, 0xe9, 0x98, 0x0c, 0x3d, 0xb9, 0x01, 0x55, 0xbd,
//   0xd6, 0x25, 0x05, 0xbe, 0xc2, 0xf6, 0x24, 0xbe, 0xc8, 0xd8, 0xbc, 0xbd,
//   0x76, 0x16, 0xb5, 0x3e, 0xe1, 0x86, 0x2d, 0x3e, 0xef, 0xb3, 0xb2, 0x3b,
//   0x09, 0xfa, 0xa7, 0xbe, 0x6e, 0x87, 0xae, 0xbe, 0x75, 0x9d, 0x65, 0x3e,
//   0x71, 0x80, 0x36, 0x3f, 0xcc, 0x7b, 0xf5, 0x3d, 0xc2, 0xd0, 0x10, 0xbf,
//   0xe4, 0x05, 0x0a, 0xbf, 0x87, 0xb6, 0x83, 0x3e, 0xa8, 0x87, 0x0e, 0xbf,
//   0x93, 0xe1, 0x10, 0x3e, 0x98, 0xf5, 0x44, 0x3d, 0x8e, 0xe4, 0x21, 0x3f,
//   0xe6, 0xa7, 0x19, 0xbf, 0x55, 0xe5, 0x02, 0x3f, 0xc7, 0x9b, 0x52, 0x3e,
//   0x70, 0x0e, 0xdc, 0xbd, 0xfd, 0xd2, 0x75, 0x3f, 0x16, 0xac, 0xc6, 0xbd,
//   0x97, 0x71, 0x3f, 0x3e, 0xee, 0x9b, 0x23, 0x3e, 0x3c, 0xf2, 0x4e, 0x3e,
//   0x17, 0x24, 0x3c, 0x3f, 0x38, 0x92, 0x4d, 0x3f, 0x3e, 0x55, 0x4b, 0xbf,
//   0xc1, 0xe1, 0x15, 0x3f, 0x29, 0x3e, 0x43, 0x3d, 0x52, 0x3d, 0x25, 0x3f,
//   0xe5, 0x71, 0x85, 0xbe, 0x4a, 0x2c, 0x1b, 0xbf, 0x76, 0x63, 0xaa, 0x3e,
//   0xfd, 0xe7, 0xab, 0xbf, 0x96, 0xba, 0x23, 0x3f, 0x2f, 0x41, 0x4b, 0xbe,
//   0x3f, 0x12, 0xa3, 0xbe, 0x76, 0xbd, 0x0d, 0xbf, 0x2e, 0x1f, 0xee, 0x3c,
//   0xee, 0x89, 0xe2, 0xbe, 0x74, 0x61, 0x3f, 0x3f, 0xf4, 0x34, 0x94, 0xbe,
//   0x9e, 0x04, 0x84, 0x3f, 0xc5, 0xbe, 0x05, 0xbf, 0x59, 0xcc, 0x99, 0x3f,
//   0x21, 0xda, 0x1d, 0x3e, 0x5a, 0x40, 0xbd, 0xbd, 0x13, 0xa5, 0x2f, 0x3f,
//   0x99, 0x44, 0x97, 0xbe, 0x6a, 0x25, 0x84, 0x3f, 0x62, 0x04, 0x37, 0x3f,
//   0xd7, 0x4b, 0x52, 0xbf, 0x41, 0x90, 0xbe, 0xbd, 0xd1, 0xea, 0xde, 0x3e,
//   0x9d, 0x50, 0xe5, 0xbe, 0xf5, 0x44, 0x80, 0x3f, 0xfe, 0x9c, 0xd7, 0x3e,
//   0x1f, 0x8d, 0xe5, 0x3e, 0x9e, 0x63, 0xa5, 0x3e, 0xce, 0xb5, 0x85, 0xbf,
//   0x10, 0x81, 0x7e, 0x3e, 0xa8, 0x7a, 0x72, 0xbf, 0x76, 0xd9, 0xff, 0xff,
//   0x04, 0x00, 0x00, 0x00, 0x0c, 0x00, 0x00, 0x00, 0x3d, 0xfa, 0x64, 0x3e,
//   0xac, 0x47, 0xe1, 0x3d, 0x49, 0xce, 0x90, 0xbe, 0xe8, 0xa2, 0xff, 0xff,
//   0x92, 0xd9, 0xff, 0xff, 0x04, 0x00, 0x00, 0x00, 0x04, 0x00, 0x00, 0x00,
//   0x00, 0x00, 0x00, 0x00, 0xa2, 0xd9, 0xff, 0xff, 0x04, 0x00, 0x00, 0x00,
//   0x04, 0x00, 0x00, 0x00, 0x0e, 0x00, 0x00, 0x00, 0xb2, 0xd9, 0xff, 0xff,
//   0x04, 0x00, 0x00, 0x00, 0x04, 0x00, 0x00, 0x00, 0x01, 0x00, 0x00, 0x00,
//   0xc2, 0xd9, 0xff, 0xff, 0x04, 0x00, 0x00, 0x00, 0x08, 0x00, 0x00, 0x00,
//   0x01, 0x00, 0x00, 0x00, 0x02, 0x00, 0x00, 0x00, 0xd6, 0xd9, 0xff, 0xff,
//   0x04, 0x00, 0x00, 0x00, 0x10, 0x03, 0x00, 0x00, 0x7e, 0x1d, 0x1e, 0x3e,
//   0xd9, 0x61, 0x97, 0x3d, 0x66, 0x64, 0x09, 0x3e, 0x7a, 0x2a, 0x02, 0xbe,
//   0xb2, 0xe3, 0x94, 0xbf, 0x9f, 0xde, 0x57, 0xbf, 0xad, 0x43, 0x0d, 0x3f,
//   0x86, 0x88, 0x6c, 0xbf, 0xf6, 0x79, 0xa4, 0x3e, 0x6e, 0x13, 0x13, 0xbf,
//   0x30, 0x16, 0x07, 0x3f, 0x73, 0x42, 0x1a, 0xbf, 0x06, 0x1e, 0x85, 0x3f,
//   0x02, 0x8e, 0xad, 0xbe, 0x7f, 0xda, 0x4c, 0x3e, 0x29, 0x7e, 0x8a, 0x3f,
//   0xa0, 0xc6, 0xc0, 0x3e, 0x93, 0x75, 0x5d, 0x3f, 0xac, 0xe2, 0xb5, 0x3d,
//   0xd1, 0x9c, 0x8c, 0xbe, 0x4b, 0x43, 0x22, 0xbf, 0x1e, 0xbf, 0x28, 0xbe,
//   0x3f, 0x54, 0xb4, 0xbe, 0xc0, 0x5c, 0x4e, 0xbf, 0x01, 0x63, 0xc8, 0xbc,
//   0xbf, 0x91, 0xa8, 0x3e, 0x58, 0x8a, 0x2c, 0x3f, 0x9a, 0x21, 0x27, 0x3e,
//   0xc9, 0x68, 0x9d, 0x3e, 0xcf, 0xa0, 0x8f, 0xbe, 0xf6, 0x50, 0xe3, 0x3e,
//   0xc2, 0x2f, 0xcb, 0x3e, 0x7a, 0x2b, 0x71, 0x3e, 0xc3, 0xf0, 0xad, 0xbd,
//   0x97, 0xdb, 0xa5, 0xbe, 0xb4, 0x35, 0xeb, 0x3d, 0xb1, 0x80, 0xbb, 0xbe,
//   0x6e, 0xdf, 0xe0, 0xbe, 0x5d, 0x73, 0xb5, 0xbe, 0x8b, 0x99, 0x0b, 0x3f,
//   0x4f, 0x8c, 0x37, 0x3f, 0x9d, 0xa0, 0x4a, 0x3e, 0x02, 0x7b, 0x1c, 0xbf,
//   0xb6, 0xa5, 0x01, 0xbf, 0xdb, 0xeb, 0x42, 0x3f, 0xb8, 0x08, 0xf4, 0x3d,
//   0x83, 0xf1, 0x76, 0xbe, 0xfa, 0x7e, 0x6e, 0x3f, 0xff, 0xb8, 0x24, 0xbe,
//   0x38, 0x7c, 0x81, 0x3e, 0x4a, 0x08, 0xc6, 0xbe, 0xfd, 0x4b, 0xe2, 0xbd,
//   0xa9, 0xe6, 0x13, 0x3e, 0x68, 0x0a, 0x11, 0x3f, 0x6d, 0x8e, 0x1a, 0x3e,
//   0x42, 0x48, 0x2e, 0xbf, 0xd3, 0x83, 0xb1, 0x3d, 0x76, 0x56, 0xc0, 0x3e,
//   0x2e, 0x3f, 0x43, 0x3d, 0xd2, 0xc8, 0xd2, 0xbe, 0x1e, 0xe7, 0xfe, 0x3e,
//   0x8e, 0x34, 0x4a, 0x3e, 0x2e, 0xf7, 0xfe, 0xbe, 0x03, 0x59, 0x5f, 0x3f,
//   0xe0, 0xb5, 0xbe, 0xbe, 0xf9, 0x1f, 0x8a, 0xbe, 0x4a, 0x6d, 0x1d, 0xbe,
//   0x82, 0x48, 0x4b, 0xbf, 0x25, 0xf4, 0x93, 0x3f, 0x53, 0xaf, 0x60, 0x3f,
//   0xea, 0x0d, 0x46, 0x3d, 0x8d, 0x53, 0xeb, 0x3e, 0xa5, 0x2e, 0xdc, 0x3d,
//   0x15, 0xed, 0xd2, 0x3e, 0x10, 0x05, 0x2f, 0xbe, 0xb6, 0xee, 0x22, 0x3e,
//   0xe0, 0x9b, 0x04, 0xbf, 0x20, 0x86, 0xf8, 0x3e, 0x45, 0xa4, 0x06, 0xbf,
//   0xbc, 0x73, 0xc4, 0xbe, 0x8f, 0x61, 0x1d, 0xbf, 0x64, 0xce, 0x13, 0x3e,
//   0x81, 0x56, 0x87, 0x3f, 0xd7, 0x70, 0x88, 0x3d, 0x9d, 0x89, 0x6b, 0xbf,
//   0x13, 0x52, 0xe3, 0xbd, 0x1d, 0x09, 0x8f, 0x3e, 0x0c, 0x26, 0x26, 0x3e,
//   0xb0, 0x96, 0x61, 0xbe, 0x9a, 0x5c, 0x6f, 0x3d, 0xd5, 0xbd, 0xc4, 0x3e,
//   0x4c, 0x69, 0x8a, 0xbe, 0x16, 0x8f, 0x6d, 0x3e, 0x1f, 0xb6, 0x94, 0xbd,
//   0xaf, 0x6b, 0xfa, 0x3c, 0xd7, 0xf3, 0xc0, 0x3e, 0x3b, 0xaa, 0xbf, 0x3e,
//   0x1c, 0x9e, 0x48, 0xbf, 0x81, 0xa2, 0x18, 0x3f, 0x8b, 0x01, 0x14, 0x3f,
//   0xa7, 0x2b, 0x55, 0x3e, 0x17, 0xb9, 0xe4, 0x3e, 0xcf, 0x4b, 0x85, 0x3e,
//   0x9d, 0xc3, 0xe2, 0xbe, 0x3e, 0x35, 0xd0, 0xbe, 0x52, 0x99, 0x30, 0x3f,
//   0x04, 0xa6, 0x09, 0xbf, 0xce, 0xb5, 0x92, 0xbd, 0xbd, 0x8a, 0x4f, 0xbf,
//   0x74, 0x6e, 0x0a, 0x3f, 0x62, 0xb1, 0x9d, 0x3e, 0x7b, 0x5e, 0x0c, 0x3f,
//   0xd4, 0xb9, 0x20, 0x3f, 0xe3, 0x88, 0x22, 0x3d, 0xf1, 0xe2, 0x0d, 0x3e,
//   0x04, 0x02, 0x63, 0xbe, 0x07, 0x14, 0xc1, 0x3e, 0x29, 0x8b, 0x6e, 0xbe,
//   0xee, 0x98, 0x08, 0x3f, 0x53, 0xb3, 0x2f, 0xbf, 0xd3, 0x2a, 0xdf, 0xbe,
//   0xf7, 0xd1, 0x11, 0xbf, 0x89, 0x1a, 0x55, 0x3d, 0xd6, 0x47, 0x67, 0xbf,
//   0x0b, 0x8b, 0x05, 0x3f, 0x68, 0xe0, 0x92, 0xbe, 0x41, 0x82, 0x03, 0x3e,
//   0x21, 0xac, 0x14, 0xbf, 0x12, 0xa0, 0x6f, 0xbd, 0x3d, 0x69, 0x7d, 0xbd,
//   0xe0, 0xc6, 0x82, 0xbe, 0xc4, 0xfa, 0xdc, 0x3e, 0x2a, 0xf7, 0xca, 0xbe,
//   0xbb, 0x68, 0x2b, 0x3e, 0x5c, 0x53, 0xe8, 0xbe, 0x0d, 0xeb, 0x0b, 0xbe,
//   0xb0, 0x07, 0x8f, 0xbe, 0x0d, 0x92, 0xb3, 0x3e, 0xff, 0x5d, 0x3f, 0x3f,
//   0xe1, 0x2a, 0xc4, 0x3e, 0x0c, 0x82, 0x20, 0x3e, 0xda, 0x13, 0xc3, 0x3e,
//   0xa6, 0x16, 0xd5, 0xbd, 0xd3, 0xe3, 0x39, 0xbe, 0x94, 0xc8, 0x7e, 0xbe,
//   0x93, 0x15, 0x10, 0xbf, 0x31, 0xb4, 0xc7, 0x3e, 0xe4, 0x0c, 0xa6, 0xbf,
//   0xfd, 0x97, 0x0d, 0xbe, 0x5c, 0xeb, 0xcd, 0xbf, 0x3a, 0x59, 0x8e, 0x3e,
//   0x12, 0x74, 0xd4, 0xbe, 0xa3, 0xc5, 0x3c, 0x3f, 0xfd, 0x2d, 0x5a, 0xbe,
//   0x0b, 0x42, 0x91, 0xbe, 0x0a, 0x23, 0x9f, 0xbe, 0x24, 0xef, 0xbd, 0x3e,
//   0xeb, 0x42, 0x9c, 0xbd, 0x5c, 0xa8, 0x2d, 0xbe, 0xd6, 0xf8, 0x80, 0x3f,
//   0x9f, 0x4a, 0x17, 0x3f, 0x5d, 0xce, 0x1e, 0x3f, 0x35, 0xce, 0x97, 0x3d,
//   0xdf, 0x4b, 0x5e, 0x3e, 0xc1, 0xaa, 0x18, 0xbe, 0x80, 0x9e, 0x50, 0x3f,
//   0x12, 0xc0, 0xbe, 0xbe, 0x8b, 0xe3, 0x6c, 0xbf, 0xbb, 0x33, 0xf2, 0x3e,
//   0xec, 0x6d, 0x90, 0x3e, 0xe9, 0x40, 0x06, 0x3e, 0x55, 0xe1, 0x3f, 0x3f,
//   0x95, 0x6c, 0xaa, 0xbc, 0x5b, 0x7e, 0xe4, 0xbd, 0xc7, 0x57, 0x0a, 0xbf,
//   0x27, 0x68, 0xf9, 0x3d, 0x23, 0x44, 0x0c, 0xbf, 0xe9, 0x69, 0x3b, 0xbf,
//   0x64, 0x6f, 0x5f, 0xbf, 0xc1, 0x6a, 0xc4, 0x3c, 0x25, 0xc4, 0x78, 0x3f,
//   0xed, 0x2e, 0x67, 0x3d, 0x5a, 0xf9, 0xcc, 0xbf, 0x6f, 0x3d, 0xd8, 0xbe,
//   0xcc, 0xd9, 0xc3, 0x3e, 0x83, 0x76, 0x8f, 0xbf, 0x90, 0x0e, 0x0b, 0xbc,
//   0xef, 0x46, 0x06, 0x3d, 0xf0, 0xb0, 0x6a, 0x3f, 0xa9, 0x9e, 0x1c, 0xbf,
//   0x98, 0x1e, 0xa8, 0x3e, 0xf2, 0xa9, 0x21, 0xbf, 0xfc, 0xaa, 0x2c, 0x3c,
//   0xe5, 0x12, 0x4c, 0x3f, 0x03, 0x18, 0x2f, 0x3e, 0x3e, 0x8b, 0xfa, 0xbe,
//   0xf2, 0xdc, 0xff, 0xff, 0x04, 0x00, 0x00, 0x00, 0xf8, 0x01, 0x00, 0x00,
//   0x96, 0x2b, 0x71, 0xbe, 0x0e, 0xcc, 0x09, 0x3e, 0x9d, 0xf3, 0x92, 0xbe,
//   0xea, 0xd8, 0xf2, 0xbe, 0x6b, 0x04, 0x00, 0x3f, 0x95, 0xf1, 0x07, 0x3f,
//   0x25, 0x99, 0x7d, 0x3f, 0x73, 0xa5, 0xe5, 0x3e, 0x59, 0xec, 0x14, 0xbc,
//   0x96, 0xe8, 0x6e, 0x3e, 0x4a, 0x6c, 0xd2, 0x3d, 0x6f, 0x72, 0x54, 0x3e,
//   0x7c, 0x4a, 0x16, 0x3f, 0xe6, 0x91, 0x54, 0x3f, 0xf6, 0xd9, 0xac, 0xbd,
//   0xf6, 0xac, 0x54, 0x3e, 0xd8, 0xe9, 0xb3, 0x3f, 0xdd, 0x67, 0x74, 0xbf,
//   0xc0, 0x8b, 0x6f, 0xbf, 0xa5, 0x3d, 0x25, 0x3f, 0xe9, 0xca, 0x6f, 0x3f,
//   0x7e, 0x60, 0x64, 0x3e, 0x1d, 0x2f, 0xdc, 0xbe, 0x61, 0x12, 0x8f, 0xbf,
//   0x08, 0xfe, 0xd4, 0x3e, 0xf1, 0xfd, 0x04, 0x3e, 0xf9, 0x6e, 0x41, 0x3e,
//   0x75, 0x13, 0x4d, 0xbe, 0xc0, 0x58, 0x55, 0x3e, 0x28, 0x1e, 0xf0, 0x3e,
//   0x46, 0xd5, 0x56, 0x3d, 0x54, 0x0e, 0xb4, 0xbd, 0x64, 0x03, 0x9b, 0x3e,
//   0xc5, 0x4f, 0x41, 0xbf, 0x17, 0x27, 0x86, 0x3d, 0x55, 0x43, 0xe9, 0xbb,
//   0xda, 0x51, 0xe0, 0xbe, 0x80, 0xea, 0x4d, 0x3e, 0xe5, 0x58, 0xc3, 0xbe,
//   0x9e, 0xf9, 0x73, 0x3e, 0x3c, 0x6b, 0x74, 0x3e, 0xb6, 0x94, 0xcb, 0xbe,
//   0x75, 0xee, 0xc9, 0xbe, 0x7e, 0xb6, 0xd3, 0xbe, 0x79, 0xa3, 0xcf, 0xbe,
//   0xaf, 0x15, 0xf8, 0xbb, 0xca, 0x1b, 0xb2, 0x3d, 0xde, 0x49, 0xd5, 0xbd,
//   0x0f, 0xfa, 0xa2, 0x3c, 0xe3, 0x9b, 0x08, 0xbe, 0x7a, 0xa1, 0x8b, 0x3f,
//   0x1c, 0x0e, 0x3d, 0x3f, 0x1e, 0x18, 0x69, 0x3e, 0xfb, 0x2f, 0xb4, 0xbd,
//   0x14, 0x63, 0x9c, 0xbe, 0xe7, 0x75, 0xc4, 0x3e, 0x32, 0xd4, 0x15, 0xbf,
//   0x5b, 0xaf, 0x13, 0x3f, 0xa0, 0x1d, 0xdd, 0xbd, 0x77, 0xf8, 0x75, 0xbe,
//   0xa7, 0xc0, 0x9a, 0xbb, 0x00, 0x05, 0x81, 0x3e, 0x7c, 0x41, 0xc9, 0x3e,
//   0x42, 0xc4, 0x2d, 0xbf, 0xcd, 0x70, 0xf7, 0x3d, 0x17, 0x9f, 0x28, 0xbe,
//   0x06, 0x48, 0x83, 0x3f, 0x72, 0x00, 0x8b, 0x3d, 0x47, 0x5e, 0xe0, 0xbe,
//   0x91, 0xa1, 0xe7, 0xbe, 0x75, 0x72, 0xec, 0x3e, 0xb2, 0x84, 0x0f, 0x3f,
//   0x3a, 0x9c, 0x8e, 0xbe, 0x27, 0x63, 0xf2, 0x3e, 0x99, 0xbf, 0x31, 0xbf,
//   0x13, 0x72, 0xfd, 0x3e, 0x4a, 0x36, 0xd1, 0x3e, 0x3c, 0x48, 0xd1, 0xbe,
//   0x67, 0x37, 0xa4, 0xbc, 0xdb, 0x1d, 0xce, 0x3e, 0xd4, 0x4f, 0x06, 0xbf,
//   0x0e, 0x09, 0xcc, 0xbe, 0x3e, 0xd2, 0x7f, 0x3f, 0xf8, 0xff, 0xf9, 0x3d,
//   0x40, 0x3a, 0x12, 0xbd, 0x7d, 0x3a, 0xac, 0x3e, 0x0a, 0xb3, 0x43, 0x3f,
//   0x1e, 0xb1, 0x8a, 0x3f, 0x16, 0xd2, 0x9e, 0x3f, 0xcd, 0x5b, 0x87, 0xbe,
//   0xce, 0xff, 0x61, 0x3e, 0x4a, 0x08, 0x8c, 0x3f, 0x27, 0x8b, 0x40, 0x3f,
//   0x25, 0x46, 0x03, 0xbf, 0xee, 0xe6, 0x5e, 0x3c, 0x93, 0xd9, 0x67, 0x3f,
//   0x4f, 0x9e, 0xd2, 0x3d, 0xfe, 0xb6, 0xe3, 0x3b, 0x4f, 0xa3, 0xcf, 0xbe,
//   0x5b, 0x2b, 0x8e, 0xbf, 0xec, 0x62, 0xc7, 0x3e, 0xc9, 0x97, 0x12, 0x3f,
//   0xe5, 0x90, 0x0f, 0x3f, 0xe7, 0xc1, 0x5c, 0xbe, 0x58, 0x7a, 0xda, 0x3e,
//   0xb3, 0x91, 0x0e, 0xbf, 0xfc, 0x8e, 0x28, 0xbf, 0xec, 0x58, 0x46, 0x3e,
//   0x11, 0x18, 0x22, 0x3f, 0xf0, 0xdd, 0x03, 0xbf, 0xc2, 0x20, 0x2c, 0xbe,
//   0x0b, 0xbd, 0xe3, 0xbd, 0xfb, 0xb6, 0xdf, 0x3e, 0x07, 0x18, 0xe8, 0xbe,
//   0xe3, 0xc3, 0xe1, 0x3e, 0x50, 0xae, 0x64, 0xbf, 0xce, 0x45, 0xc8, 0xbd,
//   0x85, 0x19, 0x84, 0x3e, 0xc4, 0xfa, 0x6f, 0xbf, 0x70, 0xc1, 0x58, 0x3e,
//   0x5a, 0x4e, 0x10, 0xbf, 0x9a, 0x3f, 0x65, 0xbe, 0x7b, 0xa1, 0x42, 0x3f,
//   0x59, 0x04, 0x81, 0x3e, 0x43, 0x88, 0xcd, 0x3d, 0x96, 0xde, 0x8b, 0x3c,
//   0xf6, 0xde, 0xff, 0xff, 0x04, 0x00, 0x00, 0x00, 0x10, 0x00, 0x00, 0x00,
//   0x00, 0x00, 0x00, 0x00, 0x00, 0x00, 0x00, 0x00, 0x00, 0x00, 0x00, 0x00,
//   0x05, 0x00, 0x00, 0x00, 0x12, 0xdf, 0xff, 0xff, 0x04, 0x00, 0x00, 0x00,
//   0x44, 0x01, 0x00, 0x00, 0xfa, 0xe2, 0x5b, 0xbd, 0xf9, 0xe7, 0x06, 0x3c,
//   0xed, 0x71, 0x6c, 0x3e, 0xf2, 0xfa, 0x6e, 0xbe, 0x18, 0x2a, 0x5b, 0xbd,
//   0xba, 0x29, 0x2e, 0x3d, 0x44, 0x1d, 0x81, 0xbd, 0xec, 0xeb, 0xa4, 0xbe,
//   0x56, 0x55, 0x81, 0xbe, 0x42, 0xb5, 0xad, 0xbc, 0x2f, 0x11, 0x55, 0x3e,
//   0x27, 0x3b, 0x2c, 0xbe, 0x67, 0x46, 0x51, 0xbe, 0x88, 0xe7, 0x89, 0xbc,
//   0x8b, 0xe7, 0x2c, 0xbe, 0x88, 0x20, 0xd2, 0xbc, 0x07, 0xf1, 0xb6, 0xbc,
//   0xe6, 0xb7, 0x0b, 0xbe, 0x81, 0x08, 0xc1, 0x3e, 0xde, 0x12, 0x24, 0xbd,
//   0x4f, 0xac, 0x41, 0xbe, 0xd9, 0xb8, 0x9e, 0xbe, 0x6f, 0x9d, 0x31, 0xbe,
//   0x82, 0x69, 0xa6, 0x3e, 0x9f, 0xc7, 0xff, 0x3e, 0xb1, 0xa9, 0x1e, 0xbd,
//   0xe4, 0xf1, 0xb5, 0xbe, 0x2a, 0x01, 0xfe, 0x3d, 0xa1, 0x12, 0x28, 0x3e,
//   0x7a, 0xca, 0x84, 0xbd, 0xeb, 0x01, 0x31, 0x3d, 0xfa, 0xe2, 0xf2, 0xbd,
//   0x16, 0x0a, 0x87, 0xbd, 0x7e, 0x45, 0xd4, 0xbd, 0x2f, 0x6a, 0xec, 0xbd,
//   0xbf, 0xe3, 0x0d, 0xbd, 0x2b, 0xe7, 0xce, 0xbd, 0x58, 0xb9, 0xdb, 0x3d,
//   0x92, 0x42, 0xa5, 0x3d, 0xeb, 0xa9, 0x2c, 0xbe, 0x22, 0x1d, 0x0d, 0xbe,
//   0x95, 0x25, 0x6d, 0xbd, 0x3f, 0x16, 0xfb, 0x3d, 0x6c, 0x30, 0xf3, 0xbd,
//   0x2c, 0xf2, 0xbf, 0xbd, 0x9a, 0xdc, 0x61, 0xbe, 0xd2, 0xc0, 0x71, 0xbe,
//   0x40, 0xc7, 0x7d, 0xbe, 0x40, 0x32, 0xa3, 0x3d, 0x0e, 0x50, 0x97, 0xbe,
//   0x7b, 0x65, 0xd1, 0x3d, 0x01, 0x26, 0x02, 0x3e, 0x35, 0x01, 0xb8, 0x3d,
//   0xcb, 0x03, 0x38, 0x3e, 0x8b, 0xbc, 0xfd, 0x3b, 0xf3, 0x3d, 0xd0, 0xbe,
//   0x47, 0xbd, 0x73, 0x3c, 0x0c, 0x81, 0xa5, 0xbe, 0x8e, 0x74, 0xb9, 0xbe,
//   0xf8, 0xfc, 0xcb, 0xbd, 0x29, 0xbb, 0xc7, 0x3d, 0x33, 0x23, 0x9b, 0x3e,
//   0x0a, 0xa9, 0x20, 0x3e, 0x70, 0xe8, 0x17, 0x3e, 0xd3, 0x47, 0x4a, 0x3d,
//   0x40, 0x61, 0xe3, 0x3c, 0x59, 0x06, 0x28, 0xbd, 0xba, 0x70, 0x76, 0x3d,
//   0x8c, 0xe8, 0x8a, 0x3d, 0x4c, 0xa2, 0xf2, 0x3d, 0xa9, 0xef, 0xa4, 0x3d,
//   0xe7, 0x24, 0xbc, 0xbd, 0x46, 0x90, 0xc6, 0x3e, 0xe0, 0xa2, 0x94, 0xbe,
//   0xa7, 0x47, 0x14, 0xbd, 0xba, 0x73, 0x54, 0xbe, 0x0b, 0xe4, 0x40, 0xbe,
//   0xf8, 0x0a, 0x74, 0x3e, 0x53, 0x61, 0xd2, 0x3e, 0x4b, 0xdf, 0x13, 0xbe,
//   0x1d, 0xc9, 0xd3, 0xbd, 0x62, 0xe0, 0xff, 0xff, 0x04, 0x00, 0x00, 0x00,
//   0xf8, 0x01, 0x00, 0x00, 0x2e, 0x80, 0x95, 0x3d, 0x2b, 0x53, 0x41, 0xbd,
//   0xaa, 0x05, 0x5b, 0x3e, 0xbd, 0xbc, 0x11, 0xbd, 0x56, 0xc9, 0x52, 0xbd,
//   0xe8, 0xb9, 0x20, 0x3d, 0x5e, 0xff, 0x0d, 0xbd, 0x99, 0xaf, 0xaf, 0xbc,
//   0xde, 0xee, 0x3d, 0xbd, 0xb8, 0x91, 0xa5, 0x3e, 0x86, 0x67, 0x2c, 0x3d,
//   0xec, 0xee, 0x76, 0x3d, 0x71, 0x9d, 0x6e, 0x3d, 0xae, 0x47, 0x22, 0x3e,
//   0x0b, 0x41, 0x80, 0x3e, 0x90, 0xc7, 0x32, 0x3e, 0xb2, 0x17, 0x46, 0x3e,
//   0x69, 0x81, 0x52, 0x3e, 0x76, 0x7d, 0x1a, 0x3e, 0x4c, 0x4a, 0x91, 0x3d,
//   0xa4, 0x0c, 0x8e, 0xbd, 0x05, 0xea, 0x80, 0x3e, 0x34, 0xd9, 0xe1, 0x3c,
//   0xf9, 0x63, 0xca, 0x3e, 0xe0, 0x0e, 0x22, 0x3c, 0xe9, 0x28, 0xf2, 0x3d,
//   0x4c, 0xa0, 0xd4, 0x3d, 0x29, 0x4d, 0xa2, 0xbd, 0xa7, 0x5d, 0xee, 0xbd,
//   0x0c, 0xc9, 0x2c, 0xbc, 0x59, 0x13, 0xfd, 0xbd, 0x1e, 0x0c, 0x38, 0xbd,
//   0xbc, 0x77, 0x8b, 0xbe, 0x00, 0x84, 0x9b, 0x3c, 0xd7, 0x74, 0x71, 0x3d,
//   0x67, 0x34, 0x8b, 0xbd, 0x61, 0xa8, 0xa3, 0xbd, 0x68, 0xc4, 0x3c, 0x3d,
//   0xc9, 0xba, 0xda, 0xbd, 0xda, 0xcc, 0x21, 0xb9, 0x50, 0xc1, 0xbf, 0x3d,
//   0x25, 0x76, 0x08, 0xbe, 0x64, 0xfd, 0x89, 0x3d, 0x1c, 0xa0, 0xad, 0x3c,
//   0x92, 0x31, 0xb1, 0xbc, 0x46, 0xa4, 0xa5, 0x3c, 0x72, 0xbc, 0x98, 0x3d,
//   0xac, 0xd5, 0xe7, 0x3c, 0x9a, 0x4b, 0x2b, 0xbe, 0xba, 0xe2, 0xa2, 0x3c,
//   0x43, 0x5b, 0x9a, 0x3d, 0x58, 0xd5, 0xd9, 0x3c, 0xd1, 0x8a, 0xec, 0xbd,
//   0x9c, 0x9f, 0x05, 0x3e, 0xb9, 0x03, 0x91, 0x3d, 0x80, 0xeb, 0x65, 0xbd,
//   0x93, 0x7d, 0x81, 0xbe, 0x3b, 0xc0, 0x67, 0x3d, 0x96, 0xc8, 0xc2, 0xbd,
//   0xac, 0x4d, 0x52, 0xbd, 0x8b, 0xe6, 0x4b, 0xbd, 0x14, 0xaf, 0x8e, 0x3e,
//   0x14, 0xa2, 0x84, 0xbd, 0x91, 0xbf, 0x13, 0xbe, 0xb8, 0x62, 0x46, 0xbe,
//   0x36, 0xb0, 0x57, 0xbe, 0x61, 0x2f, 0x75, 0x3e, 0x21, 0xbe, 0x9c, 0x3d,
//   0xc7, 0xf5, 0x3a, 0x3d, 0xad, 0x39, 0xa0, 0xbd, 0x66, 0xba, 0x94, 0xbe,
//   0x60, 0x42, 0xf1, 0xbd, 0xbb, 0x8b, 0x6f, 0x3c, 0xf1, 0x80, 0x65, 0x3e,
//   0x9d, 0x9f, 0x5f, 0x3e, 0x07, 0x18, 0xd7, 0xbd, 0x03, 0xfc, 0x8b, 0x3e,
//   0x79, 0x3e, 0x98, 0xbc, 0xda, 0x49, 0x3e, 0x3d, 0x5d, 0x52, 0xe7, 0xbd,
//   0x4b, 0xa6, 0x5b, 0x3e, 0x08, 0x75, 0xdd, 0x3c, 0x27, 0x4f, 0x5f, 0xbd,
//   0x73, 0xfd, 0x11, 0xbe, 0x79, 0xeb, 0x84, 0x3e, 0xb9, 0x7c, 0x6e, 0xbd,
//   0x19, 0x38, 0xfb, 0xbd, 0x50, 0xb3, 0x14, 0xbd, 0xf5, 0x1e, 0xe0, 0x3d,
//   0x23, 0x01, 0x8d, 0x3d, 0x00, 0xd4, 0x57, 0x3d, 0xf0, 0xff, 0x15, 0xbd,
//   0xb2, 0xac, 0x7e, 0xbe, 0x74, 0xa5, 0xed, 0x3d, 0x3c, 0xce, 0x4c, 0xbd,
//   0xdc, 0x97, 0xac, 0x3d, 0xcd, 0x27, 0x00, 0x3d, 0xa1, 0xb9, 0x87, 0xbd,
//   0x86, 0x90, 0x54, 0x3d, 0xab, 0xcb, 0x2f, 0x3e, 0xa7, 0x47, 0x61, 0xbd,
//   0xa0, 0x92, 0xa3, 0xbc, 0xbc, 0x5c, 0x66, 0xba, 0x03, 0x41, 0x5d, 0xbe,
//   0x8c, 0xb8, 0x53, 0x3e, 0x05, 0xb6, 0x54, 0x3d, 0xa3, 0x47, 0xf0, 0xba,
//   0xa1, 0x51, 0xac, 0x3d, 0xcd, 0x5b, 0xeb, 0xbe, 0xaa, 0xee, 0x1b, 0xbe,
//   0x62, 0xe8, 0xad, 0xbd, 0x7c, 0x21, 0x92, 0x3e, 0xc7, 0xa2, 0x3b, 0xbd,
//   0x33, 0x0d, 0x1a, 0x3e, 0xa4, 0xc4, 0x1e, 0xbe, 0x21, 0x9c, 0x8a, 0x3e,
//   0xb1, 0xd8, 0xf5, 0xbe, 0xcc, 0xff, 0x1b, 0x3e, 0x4a, 0x1a, 0x0b, 0x3d,
//   0xba, 0x0f, 0x66, 0x3e, 0x8c, 0x7b, 0xdd, 0xbd, 0x54, 0x1a, 0xb4, 0x3d,
//   0x3a, 0x45, 0x10, 0x3e, 0xdc, 0x08, 0x08, 0x3e, 0x96, 0x9d, 0xdd, 0xbc,
//   0xaf, 0x8f, 0x23, 0x3e, 0x66, 0xe2, 0xff, 0xff, 0x04, 0x00, 0x00, 0x00,
//   0xd8, 0x00, 0x00, 0x00, 0xe6, 0x38, 0x16, 0x3f, 0xeb, 0xd9, 0x53, 0x3f,
//   0xe5, 0x32, 0xad, 0xbe, 0x39, 0x3e, 0xb4, 0xbf, 0xe9, 0x7e, 0x12, 0x3f,
//   0x76, 0xdb, 0x13, 0x3f, 0x40, 0x03, 0x61, 0x3e, 0x5f, 0x35, 0x60, 0x3f,
//   0xbc, 0x1e, 0x5f, 0x3d, 0xd3, 0x01, 0x94, 0x3f, 0xa2, 0x43, 0xb9, 0x3e,
//   0x82, 0x48, 0x96, 0x3f, 0x4c, 0x3d, 0x31, 0xbf, 0x60, 0xfd, 0x95, 0x3e,
//   0xe1, 0x24, 0x75, 0xbe, 0x58, 0xf2, 0x2b, 0x3f, 0x74, 0xb7, 0xab, 0x3e,
//   0xb3, 0xef, 0x25, 0xbe, 0xca, 0xbf, 0x6d, 0xbf, 0xf9, 0x81, 0x04, 0xbf,
//   0x8a, 0x4e, 0x3d, 0x3f, 0xde, 0x5c, 0xa7, 0xbf, 0xfa, 0xe8, 0xaa, 0xbf,
//   0x2c, 0x07, 0x15, 0x3f, 0x8f, 0xfb, 0x22, 0xbf, 0xd2, 0xec, 0x09, 0xbf,
//   0x2f, 0x3d, 0x29, 0xbf, 0x48, 0x3c, 0x5d, 0xbf, 0x84, 0xeb, 0x2a, 0x3d,
//   0x06, 0x1e, 0xea, 0x3f, 0x9b, 0xf3, 0xee, 0xbe, 0x65, 0x8d, 0xa0, 0x3e,
//   0x02, 0xfa, 0x4e, 0xbe, 0x7a, 0xe9, 0x3d, 0x3f, 0x4f, 0x7b, 0x3e, 0x3f,
//   0x7a, 0x4f, 0xc5, 0x3e, 0xc6, 0x66, 0x93, 0x3e, 0x1b, 0x56, 0xbf, 0xbf,
//   0xed, 0xe8, 0xab, 0xbe, 0xf9, 0xc4, 0x04, 0x40, 0xfe, 0x47, 0xae, 0x3f,
//   0xa1, 0x8e, 0x72, 0x3f, 0xe1, 0x41, 0x25, 0xbf, 0xd9, 0x45, 0x0f, 0x3d,
//   0x82, 0xd7, 0xf8, 0x3f, 0x82, 0x56, 0x78, 0x3e, 0x8d, 0xbe, 0x00, 0xbf,
//   0xa7, 0x7f, 0xe0, 0xbe, 0x18, 0xbe, 0xb5, 0x3c, 0x35, 0x99, 0xe0, 0xbd,
//   0x0a, 0x7c, 0xe2, 0x3e, 0xd9, 0x3b, 0x40, 0xbe, 0x7f, 0x0b, 0xf1, 0xbd,
//   0xb1, 0xd0, 0xa1, 0xbe, 0x4a, 0xe3, 0xff, 0xff, 0x04, 0x00, 0x00, 0x00,
//   0xd8, 0x00, 0x00, 0x00, 0x0d, 0xe2, 0x11, 0xbe, 0x56, 0xea, 0x1c, 0x3f,
//   0x7b, 0x81, 0xf2, 0x3e, 0xe1, 0x78, 0xb1, 0xbd, 0xfc, 0x1e, 0xf0, 0x3e,
//   0x73, 0x28, 0xa9, 0x3c, 0xe8, 0xb5, 0x70, 0x3b, 0xc9, 0xed, 0x10, 0xbf,
//   0x5c, 0xfa, 0x19, 0xbf, 0x27, 0x75, 0x3e, 0x3e, 0x48, 0x92, 0x27, 0xbe,
//   0x5c, 0xd3, 0x98, 0xbd, 0x01, 0x3c, 0x9c, 0xbe, 0xa1, 0xf4, 0x06, 0x3e,
//   0x9f, 0x17, 0xb5, 0xbe, 0x94, 0x0f, 0xda, 0x3e, 0xb3, 0x24, 0x7a, 0x3c,
//   0xa7, 0x2e, 0xa4, 0xbe, 0xd9, 0x34, 0xb9, 0x3b, 0x03, 0x0b, 0x9c, 0x3e,
//   0x08, 0x1f, 0x2a, 0xbe, 0x38, 0xc3, 0xec, 0xbe, 0x33, 0x65, 0x9a, 0x3e,
//   0xbb, 0x9c, 0x9a, 0xbe, 0x8d, 0xc5, 0x8d, 0xbd, 0x39, 0x5c, 0x3c, 0xbe,
//   0x9c, 0x47, 0x42, 0x3e, 0xbd, 0x2c, 0x6a, 0x3e, 0x46, 0xb1, 0xb5, 0x3c,
//   0x02, 0x71, 0xa0, 0xbd, 0xab, 0x60, 0x05, 0xbe, 0x85, 0xd7, 0x9d, 0x3d,
//   0x7d, 0x0e, 0x02, 0xbf, 0x47, 0x19, 0x9f, 0xbe, 0xe0, 0x84, 0x66, 0x3e,
//   0x01, 0x5d, 0xa3, 0x3e, 0xb6, 0xed, 0x6e, 0xbe, 0xd6, 0xa4, 0xed, 0xbd,
//   0x47, 0x2a, 0xec, 0xbe, 0x37, 0xf1, 0xcf, 0x3d, 0x99, 0xd4, 0x0b, 0x3f,
//   0x7c, 0xe6, 0x39, 0x3f, 0xe4, 0xb1, 0x0e, 0xbf, 0x3e, 0x1e, 0xf9, 0xbe,
//   0x91, 0x70, 0x31, 0x3d, 0xb3, 0x3d, 0xb4, 0xbd, 0x50, 0xf3, 0x4a, 0x3e,
//   0xf2, 0x9c, 0x13, 0xbd, 0xe3, 0x6d, 0xf6, 0xbd, 0x9a, 0xb9, 0x14, 0xbf,
//   0x26, 0x61, 0x3c, 0x3e, 0xcd, 0x3f, 0x49, 0xbe, 0x2b, 0x1e, 0x0a, 0x3e,
//   0x71, 0x8c, 0x6a, 0x3d, 0x2e, 0xe4, 0xff, 0xff, 0x04, 0x00, 0x00, 0x00,
//   0x90, 0x00, 0x00, 0x00, 0x90, 0x0d, 0x16, 0xbf, 0x61, 0xc6, 0x30, 0xbf,
//   0x20, 0x01, 0x3e, 0x3e, 0x43, 0xda, 0xb0, 0xbd, 0xf0, 0x7b, 0x21, 0x3e,
//   0xb7, 0x14, 0x15, 0x3d, 0xd2, 0x49, 0xa9, 0x3e, 0xf1, 0x9d, 0xde, 0x3e,
//   0x08, 0x0b, 0x31, 0x3f, 0xfb, 0xeb, 0x83, 0x3d, 0x12, 0xe9, 0x56, 0x3e,
//   0x7e, 0x1e, 0xd8, 0x3e, 0x1a, 0xa1, 0xa2, 0xbe, 0xf9, 0xa7, 0x16, 0xbf,
//   0x7f, 0xe4, 0x0b, 0xbf, 0xe4, 0x12, 0xf0, 0x3d, 0xeb, 0x32, 0x2e, 0xbe,
//   0xea, 0xa8, 0xb0, 0xbd, 0xd0, 0xe9, 0x07, 0xbc, 0xc0, 0x3f, 0x5a, 0xbe,
//   0x23, 0xfb, 0x4b, 0x3e, 0x05, 0xf0, 0xdd, 0x3c, 0x3d, 0xb2, 0x02, 0xbf,
//   0x14, 0x3e, 0x01, 0x3f, 0x62, 0x49, 0x63, 0x3d, 0xc6, 0x4c, 0xd1, 0xbe,
//   0x4d, 0x45, 0xf1, 0xbe, 0xc1, 0xcd, 0xce, 0x3e, 0xe6, 0x9e, 0x15, 0xbe,
//   0xea, 0xe9, 0xd3, 0xbe, 0xd1, 0x00, 0xd1, 0xbe, 0xd1, 0x49, 0xe1, 0x3c,
//   0x9e, 0xd9, 0x26, 0x3e, 0xd0, 0x80, 0x93, 0x3e, 0xf1, 0x65, 0x60, 0x3e,
//   0x31, 0xd0, 0xe5, 0x3e, 0xca, 0xe4, 0xff, 0xff, 0x04, 0x00, 0x00, 0x00,
//   0xd8, 0x00, 0x00, 0x00, 0x14, 0xb7, 0x18, 0x3e, 0x49, 0x6a, 0xa7, 0xbe,
//   0x3a, 0x99, 0xb5, 0x3e, 0x2b, 0x19, 0x33, 0xbe, 0x35, 0x36, 0xa7, 0xbe,
//   0x31, 0xcf, 0x86, 0x3e, 0x1f, 0x4e, 0xe1, 0x3e, 0x9b, 0x18, 0x0f, 0x3e,
//   0xa9, 0xc4, 0x3a, 0x3e, 0xa6, 0x2c, 0xce, 0xbc, 0x61, 0x0b, 0x38, 0xbe,
//   0xc8, 0xc9, 0xa9, 0x3d, 0xcf, 0xa6, 0xbf, 0xbe, 0x9f, 0xe0, 0x2a, 0x3e,
//   0xc4, 0x07, 0x16, 0xbf, 0xb1, 0x4a, 0x14, 0x3e, 0x5f, 0x35, 0x17, 0x3f,
//   0x0c, 0x49, 0xe8, 0x3e, 0x49, 0x4d, 0x51, 0x3f, 0x64, 0x0a, 0xae, 0x3d,
//   0x49, 0xe0, 0x5d, 0xbe, 0xb5, 0xb2, 0x98, 0x3e, 0x8d, 0x3d, 0x95, 0x3e,
//   0x17, 0x45, 0xf9, 0x3e, 0x70, 0x59, 0x85, 0xbd, 0xb8, 0x01, 0x0a, 0xbf,
//   0x2d, 0x8c, 0xa0, 0x3d, 0xaf, 0x42, 0xbf, 0xbd, 0xe0, 0xc4, 0x17, 0xbf,
//   0x33, 0xfd, 0xd3, 0x3e, 0xd5, 0x78, 0x07, 0x3f, 0xe4, 0x0a, 0x18, 0xbf,
//   0xf9, 0xc8, 0xf3, 0x3e, 0xe4, 0xab, 0x32, 0xbe, 0x93, 0xe3, 0x1b, 0x3c,
//   0x09, 0xdd, 0x94, 0x3e, 0xd2, 0x2a, 0x11, 0x3d, 0xab, 0xa0, 0xbc, 0x3d,
//   0x9a, 0xaa, 0x1c, 0x3f, 0x88, 0x39, 0x8a, 0xbd, 0x71, 0x23, 0xa1, 0xbe,
//   0xee, 0x9e, 0x4c, 0xbf, 0x6d, 0xc2, 0x6b, 0xbe, 0x28, 0x14, 0x0a, 0x3f,
//   0xd2, 0xef, 0x6b, 0xbf, 0x7c, 0xed, 0x1c, 0x3f, 0x4e, 0x41, 0x33, 0x3f,
//   0xe1, 0xc8, 0x5f, 0x3e, 0xde, 0xea, 0xf3, 0x3d, 0xdd, 0xad, 0x9c, 0xbd,
//   0xac, 0xb2, 0xc7, 0x3e, 0xbf, 0x16, 0x97, 0xbe, 0x59, 0xed, 0x9a, 0xbe,
//   0x5c, 0xe4, 0x87, 0x3d, 0xae, 0xe5, 0xff, 0xff, 0x04, 0x00, 0x00, 0x00,
//   0x10, 0x00, 0x00, 0x00, 0x01, 0x00, 0x00, 0x00, 0x01, 0x00, 0x00, 0x00,
//   0x01, 0x00, 0x00, 0x00, 0x01, 0x00, 0x00, 0x00, 0xca, 0xe5, 0xff, 0xff,
//   0x04, 0x00, 0x00, 0x00, 0x10, 0x00, 0x00, 0x00, 0x00, 0x00, 0x00, 0x00,
//   0x00, 0x00, 0x00, 0x00, 0x00, 0x00, 0x00, 0x00, 0x03, 0x00, 0x00, 0x00,
//   0xe6, 0xe5, 0xff, 0xff, 0x04, 0x00, 0x00, 0x00, 0x10, 0x00, 0x00, 0x00,
//   0x00, 0x00, 0x00, 0x00, 0x00, 0x00, 0x00, 0x00, 0x00, 0x00, 0x00, 0x00,
//   0x00, 0x00, 0x00, 0x00, 0x02, 0xe6, 0xff, 0xff, 0x04, 0x00, 0x00, 0x00,
//   0x60, 0x00, 0x00, 0x00, 0x2d, 0xbb, 0x62, 0x3d, 0x2b, 0xd7, 0xbc, 0xbd,
//   0xf0, 0xa0, 0x5c, 0xbe, 0xf9, 0x48, 0x2b, 0x3e, 0x14, 0x46, 0x94, 0x3d,
//   0x69, 0xad, 0x33, 0xbc, 0xb5, 0xac, 0xec, 0x3d, 0xeb, 0xeb, 0x0b, 0x3f,
//   0xb8, 0x7b, 0x8e, 0x3f, 0x16, 0x5f, 0x10, 0x3f, 0x41, 0x50, 0x11, 0xbf,
//   0x70, 0xc5, 0x89, 0x3e, 0x5f, 0xbe, 0x74, 0xbe, 0x02, 0x90, 0xcd, 0xbe,
//   0x42, 0xd1, 0xf2, 0xbe, 0x5e, 0x71, 0x54, 0xbe, 0x28, 0xe4, 0xe7, 0xbf,
//   0x76, 0xd6, 0x49, 0x3f, 0x26, 0x1e, 0x40, 0x3f, 0x4c, 0xdf, 0x8b, 0x3e,
//   0x23, 0x13, 0xf6, 0x3d, 0x24, 0xd3, 0x3d, 0x3e, 0x21, 0xeb, 0xef, 0x3e,
//   0x5f, 0x52, 0xc6, 0x3e, 0x6e, 0xe6, 0xff, 0xff, 0x04, 0x00, 0x00, 0x00,
//   0x40, 0x00, 0x00, 0x00, 0x9e, 0x24, 0xf0, 0x3f, 0x4d, 0x07, 0xc2, 0x3f,
//   0xd4, 0x46, 0x63, 0x3f, 0x79, 0xc2, 0x64, 0xbf, 0x02, 0x14, 0x59, 0xbe,
//   0x0e, 0x1c, 0x29, 0x3e, 0xda, 0x60, 0x89, 0xbd, 0x8e, 0x08, 0x08, 0xbf,
//   0xd7, 0xb5, 0xc0, 0x3c, 0xca, 0x6e, 0x48, 0xbe, 0x41, 0x91, 0x0d, 0xbf,
//   0xe1, 0x75, 0x82, 0x3d, 0xba, 0xed, 0x11, 0xbd, 0xe7, 0xef, 0x80, 0xbe,
//   0x79, 0x80, 0xdd, 0x3f, 0xc3, 0x80, 0x61, 0xbf, 0xba, 0xe6, 0xff, 0xff,
//   0x04, 0x00, 0x00, 0x00, 0x40, 0x00, 0x00, 0x00, 0x71, 0x91, 0x9a, 0xbe,
//   0xf4, 0xe8, 0x15, 0xbc, 0x05, 0xc8, 0x21, 0xbf, 0xf9, 0xe6, 0xcb, 0xbe,
//   0xad, 0x6f, 0xa5, 0xbf, 0x99, 0x10, 0x2f, 0x3f, 0x58, 0x33, 0x21, 0x3e,
//   0x9a, 0x7d, 0x40, 0xbd, 0xb3, 0x05, 0x60, 0x3f, 0xe9, 0x6c, 0xe9, 0xbd,
//   0x02, 0x0f, 0x01, 0x3e, 0x0b, 0xdc, 0x0e, 0x3f, 0x60, 0x9d, 0xd8, 0x3e,
//   0xcf, 0x8b, 0x2c, 0xbf, 0xb1, 0x3f, 0x82, 0x3f, 0x42, 0x43, 0x0f, 0x3f,
//   0x06, 0xe7, 0xff, 0xff, 0x04, 0x00, 0x00, 0x00, 0xb0, 0x01, 0x00, 0x00,
//   0x70, 0x33, 0x7d, 0x3e, 0x1e, 0xa7, 0xa0, 0xbe, 0xbc, 0xf0, 0x04, 0xbf,
//   0x6a, 0xe0, 0x53, 0xbf, 0xec, 0xd5, 0x9b, 0xbf, 0x18, 0x8a, 0xb6, 0x3f,
//   0x4d, 0x9b, 0xd4, 0x3f, 0x6e, 0x72, 0x0b, 0xbf, 0xa1, 0x97, 0xa6, 0x3f,
//   0x82, 0xfa, 0x00, 0x3f, 0xc7, 0xf7, 0x12, 0xc0, 0xc6, 0x0e, 0xd4, 0xbf,
//   0x87, 0xec, 0xa2, 0x3f, 0xbb, 0xec, 0xf3, 0xbf, 0x94, 0xe2, 0x17, 0x3e,
//   0x2f, 0xce, 0xda, 0x3f, 0xcc, 0x07, 0x91, 0x3f, 0x0e, 0x77, 0x10, 0x40,
//   0x21, 0x51, 0x59, 0x3e, 0xfc, 0x97, 0x12, 0xc0, 0x0f, 0xfc, 0xae, 0x3f,
//   0xd0, 0x33, 0xf5, 0x3d, 0x21, 0x7f, 0xbc, 0xbf, 0x0c, 0xf3, 0xad, 0x3e,
//   0xd8, 0x4b, 0x1f, 0xbf, 0xc5, 0xf2, 0x35, 0x3e, 0x7b, 0xe5, 0xdd, 0xbe,
//   0xd1, 0xa9, 0xb6, 0xbf, 0xa1, 0x26, 0x46, 0xbf, 0x7b, 0xf4, 0xc0, 0x3e,
//   0x39, 0x4f, 0x8c, 0xbf, 0x99, 0x61, 0xef, 0xbd, 0x77, 0x9e, 0xd4, 0x3e,
//   0x22, 0x9c, 0xa6, 0xbd, 0xc9, 0xbc, 0x26, 0xbf, 0xb6, 0xca, 0x6e, 0x3f,
//   0xe3, 0x0b, 0xa0, 0xbf, 0xfb, 0x6b, 0x0f, 0xbf, 0x05, 0xd6, 0x48, 0x3f,
//   0xfd, 0x50, 0x81, 0xbf, 0x48, 0x25, 0x37, 0xbf, 0xaf, 0x8f, 0x3c, 0x3f,
//   0xf3, 0xca, 0x48, 0xbe, 0x01, 0xaa, 0xc3, 0xbe, 0xec, 0xc8, 0x6c, 0x3d,
//   0x55, 0x96, 0xed, 0xbe, 0x95, 0x2d, 0x09, 0xbe, 0x9a, 0x57, 0x25, 0x3f,
//   0x90, 0x8c, 0x15, 0xbf, 0xc6, 0xfc, 0xb3, 0xbe, 0x83, 0x18, 0x61, 0x3f,
//   0x64, 0x44, 0x14, 0xbe, 0x0e, 0xc8, 0x7e, 0xbe, 0x55, 0x57, 0x44, 0x3f,
//   0x7e, 0x84, 0x37, 0x3f, 0x43, 0x63, 0x8a, 0xbe, 0x37, 0x60, 0x8a, 0xbd,
//   0x63, 0x69, 0x8e, 0x3f, 0x10, 0xe6, 0x1b, 0xbf, 0x45, 0x69, 0xc8, 0x3d,
//   0xb5, 0xc6, 0x27, 0x3f, 0xf3, 0x0e, 0x36, 0xbf, 0x9a, 0x70, 0x84, 0xbe,
//   0xc9, 0x10, 0x02, 0x3f, 0x5f, 0x8a, 0x6f, 0xbe, 0x75, 0xdf, 0xa4, 0xbf,
//   0x44, 0x69, 0x06, 0xbf, 0x8a, 0xa8, 0xba, 0x3f, 0xd2, 0x56, 0x7c, 0xbf,
//   0x90, 0xe9, 0xb8, 0x3e, 0x11, 0x79, 0xd7, 0x3e, 0x0e, 0x01, 0x68, 0xbf,
//   0xb7, 0x24, 0x2d, 0x3f, 0x2a, 0xd1, 0x65, 0x3e, 0x9d, 0xee, 0xfd, 0xbf,
//   0xac, 0xa4, 0x56, 0x3e, 0x4c, 0x79, 0x89, 0x3f, 0x30, 0xc1, 0x24, 0xc0,
//   0x24, 0xfe, 0xfa, 0xbd, 0x3e, 0x29, 0xd6, 0x3e, 0x29, 0xa5, 0x56, 0xbf,
//   0xfd, 0x08, 0x51, 0x3f, 0x7b, 0xe2, 0x05, 0xc0, 0xe5, 0x89, 0x75, 0x3e,
//   0x88, 0xc7, 0xb6, 0x3f, 0x3d, 0xf1, 0x3f, 0xbe, 0x1c, 0xc2, 0xe6, 0x3f,
//   0xf4, 0x87, 0x65, 0x3f, 0x26, 0xd2, 0x00, 0xc0, 0x41, 0x2b, 0x12, 0x3e,
//   0x29, 0x67, 0x00, 0x40, 0xf1, 0x66, 0x21, 0xc0, 0xf4, 0xe7, 0xb2, 0xbe,
//   0x09, 0xf5, 0xa3, 0x3f, 0x27, 0x55, 0x02, 0xc0, 0xa8, 0x87, 0xde, 0x3f,
//   0x64, 0xc1, 0xfa, 0x3e, 0x6b, 0x83, 0x0e, 0xc0, 0x67, 0xcc, 0xb7, 0xbf,
//   0x79, 0x8f, 0x05, 0x40, 0x42, 0x5f, 0x37, 0xc0, 0xad, 0xa3, 0x06, 0xc0,
//   0xbf, 0x84, 0xc2, 0x3e, 0xdf, 0x50, 0x1e, 0xc0, 0xf8, 0x66, 0xbf, 0x3f,
//   0x68, 0xfa, 0x07, 0x40, 0xd9, 0x11, 0x12, 0x3f, 0xfc, 0x1c, 0xff, 0x3f,
//   0xc2, 0xe8, 0xff, 0xff, 0x04, 0x00, 0x00, 0x00, 0x44, 0x01, 0x00, 0x00,
//   0xf4, 0xc3, 0x0f, 0x3f, 0x2a, 0x5e, 0x27, 0x3d, 0xee, 0x92, 0xc8, 0x3e,
//   0x22, 0x10, 0x3e, 0x3f, 0xd6, 0x65, 0xf1, 0x3d, 0x8e, 0xbb, 0x5e, 0xbe,
//   0x0b, 0x39, 0x58, 0xbe, 0xce, 0xdf, 0xc4, 0x3e, 0x60, 0x3d, 0x38, 0xbf,
//   0x0d, 0x85, 0x18, 0x3f, 0x7b, 0x08, 0xc0, 0xbe, 0xc4, 0x1d, 0xf6, 0xbd,
//   0x5c, 0xd9, 0xd0, 0xbd, 0x7d, 0x6c, 0x8e, 0x3f, 0xa5, 0x8d, 0x78, 0xbe,
//   0x73, 0xb0, 0xbf, 0x3e, 0x45, 0x8a, 0x50, 0xbc, 0xa0, 0x7a, 0x14, 0x3d,
//   0x2b, 0x04, 0x55, 0x3e, 0xec, 0x7c, 0x8b, 0xbf, 0xfa, 0x9a, 0x3e, 0x3f,
//   0x38, 0x61, 0xb9, 0x3f, 0x9c, 0x70, 0x72, 0xbd, 0x4e, 0x4d, 0xa4, 0x3e,
//   0x3e, 0xea, 0xfc, 0x3e, 0x36, 0xf4, 0x6c, 0x3e, 0x4f, 0x7c, 0xe1, 0xbe,
//   0x60, 0x8a, 0x25, 0xbe, 0x1a, 0xc1, 0x88, 0xbe, 0x16, 0x3b, 0x08, 0x3f,
//   0x5c, 0x6b, 0x8c, 0x3e, 0xda, 0x64, 0x32, 0xbf, 0x66, 0x34, 0xb4, 0x3e,
//   0xf4, 0x4d, 0x05, 0xbf, 0xb4, 0xc6, 0x61, 0x3e, 0xed, 0x17, 0x0e, 0x3c,
//   0x91, 0x50, 0x87, 0xbd, 0xae, 0x70, 0xf0, 0x3e, 0x12, 0x30, 0x37, 0x3f,
//   0x44, 0x9a, 0x1f, 0xbd, 0x25, 0x79, 0x0c, 0xbf, 0x6e, 0x6e, 0x18, 0x3e,
//   0x37, 0x1e, 0xc2, 0xbe, 0xa6, 0xef, 0x77, 0x3e, 0x7d, 0x73, 0x72, 0x3e,
//   0x5d, 0x11, 0x1e, 0xbe, 0x9f, 0x32, 0x64, 0xbe, 0x16, 0x69, 0x13, 0xbf,
//   0xa0, 0xc7, 0xbc, 0x3d, 0x70, 0xe8, 0x81, 0x3e, 0x23, 0xb8, 0xe3, 0xbe,
//   0xc9, 0x94, 0xb2, 0xbe, 0x71, 0xbf, 0x33, 0x3e, 0x62, 0x09, 0x05, 0x3f,
//   0xba, 0xd0, 0x6f, 0xbf, 0x0f, 0x0b, 0x40, 0x3f, 0x28, 0xb9, 0x95, 0x3f,
//   0xe8, 0x06, 0x93, 0x3e, 0xb0, 0xfb, 0x62, 0x3e, 0x92, 0x19, 0x59, 0xbe,
//   0x7f, 0x59, 0x0e, 0x3f, 0x05, 0x93, 0xd3, 0xbe, 0x22, 0xee, 0x15, 0xbf,
//   0xd2, 0x63, 0x16, 0xbe, 0xf5, 0x78, 0x49, 0xbe, 0xef, 0x16, 0x0c, 0x3f,
//   0xce, 0x6c, 0x07, 0xbf, 0x7e, 0xfb, 0x1d, 0x3f, 0x4e, 0xf2, 0x07, 0x3f,
//   0x68, 0x30, 0x16, 0xbb, 0x8c, 0xa5, 0xe3, 0xbe, 0x57, 0x94, 0xb1, 0x3e,
//   0xb6, 0xa2, 0xda, 0xbe, 0x6d, 0xf0, 0x16, 0x3e, 0x75, 0x36, 0x81, 0x3f,
//   0xa8, 0x29, 0x96, 0x3e, 0xf5, 0xc5, 0xff, 0x3e, 0x94, 0xaa, 0xf4, 0x3e,
//   0xf0, 0x9d, 0xda, 0xbe, 0x59, 0xcb, 0x7e, 0x3d, 0xc4, 0xe9, 0x13, 0x3f,
//   0x12, 0xea, 0xff, 0xff, 0x04, 0x00, 0x00, 0x00, 0xf8, 0x01, 0x00, 0x00,
//   0x04, 0xcd, 0x11, 0x3e, 0x0f, 0x0c, 0x1d, 0x3f, 0x60, 0x63, 0xe6, 0xbe,
//   0x69, 0xff, 0x8d, 0xbf, 0x18, 0x1e, 0xa6, 0x3e, 0x74, 0x19, 0x20, 0xbf,
//   0x3f, 0xcd, 0x92, 0xbe, 0xbd, 0xc1, 0x09, 0x3e, 0xd2, 0x13, 0xb4, 0xbe,
//   0x6e, 0x38, 0x6c, 0xbf, 0x38, 0x13, 0xaf, 0xbe, 0x06, 0xe2, 0x01, 0xbe,
//   0xa9, 0x10, 0x84, 0x3f, 0xcb, 0xd3, 0x21, 0x3f, 0xbc, 0x99, 0x9a, 0x3e,
//   0xec, 0x5c, 0xb5, 0x3f, 0xc6, 0x21, 0x8f, 0x3f, 0x95, 0xc1, 0xc1, 0xbf,
//   0x94, 0x02, 0xe8, 0xbd, 0x9b, 0xf3, 0x27, 0xbf, 0x72, 0x6c, 0xb9, 0x3e,
//   0x59, 0x6a, 0xc0, 0xbe, 0x2b, 0xd3, 0xaa, 0xbd, 0xb2, 0x32, 0x3f, 0xbf,
//   0x13, 0xd0, 0x6c, 0xbf, 0xc7, 0x11, 0x06, 0x3f, 0xd2, 0x6c, 0x3b, 0x3f,
//   0xf0, 0xb1, 0x6a, 0xbe, 0x9b, 0xfd, 0x98, 0x3e, 0x9a, 0xe7, 0x3f, 0x3f,
//   0x42, 0x5d, 0x03, 0x3f, 0x19, 0x82, 0xb5, 0xbf, 0x9e, 0xdc, 0x25, 0xbf,
//   0xb6, 0x50, 0xed, 0xbc, 0x3f, 0x4c, 0xcd, 0x3e, 0x37, 0xa8, 0x9d, 0x3f,
//   0xb3, 0x66, 0xa2, 0xbe, 0x1f, 0x42, 0x80, 0xbe, 0x98, 0x36, 0xde, 0xbe,
//   0x9f, 0x26, 0x99, 0x3d, 0xe9, 0xba, 0xc2, 0xbe, 0x07, 0x7b, 0xa8, 0x3f,
//   0x59, 0x83, 0xf7, 0x3e, 0xa9, 0xe9, 0xa3, 0xbe, 0x23, 0x79, 0xbe, 0xbe,
//   0xdf, 0xca, 0xa2, 0xbe, 0xe0, 0x9e, 0x28, 0x3d, 0x83, 0x72, 0xc8, 0xbe,
//   0xdf, 0x0a, 0xad, 0x3d, 0x9d, 0xdb, 0xa9, 0xbd, 0xc6, 0xe9, 0xfe, 0xbe,
//   0x20, 0x7d, 0xd9, 0xbe, 0x8d, 0xda, 0x8a, 0xbf, 0x5b, 0x9a, 0x1d, 0xbf,
//   0x49, 0x23, 0x84, 0xbe, 0xef, 0xb0, 0x9a, 0xbe, 0x89, 0x25, 0xa1, 0x3e,
//   0x4b, 0x60, 0x2b, 0xbf, 0x07, 0x49, 0xdc, 0x3d, 0x7b, 0x45, 0xec, 0x3e,
//   0x2a, 0x3b, 0x2e, 0xbe, 0x79, 0x18, 0xe6, 0xbe, 0x8a, 0x4e, 0xb2, 0x3e,
//   0x97, 0x1c, 0x19, 0xc0, 0xe2, 0xe8, 0x74, 0xbf, 0x92, 0x14, 0x29, 0xbf,
//   0xa5, 0x3d, 0x1d, 0xbf, 0xb6, 0xa8, 0xc7, 0xbe, 0xac, 0xa5, 0x0c, 0x3e,
//   0x89, 0x62, 0x9f, 0x3d, 0x23, 0x6a, 0x95, 0x3e, 0x29, 0x02, 0x53, 0xbf,
//   0xb4, 0xb9, 0x74, 0xbd, 0xd7, 0x59, 0x83, 0x3f, 0x6d, 0x90, 0x80, 0x3e,
//   0xeb, 0x95, 0xec, 0xbe, 0xb6, 0xa8, 0xfc, 0x3e, 0xae, 0xf6, 0x7f, 0xbf,
//   0xe6, 0xda, 0xe0, 0xbd, 0x5c, 0xfb, 0xf4, 0x3c, 0xec, 0x81, 0x92, 0xbf,
//   0x89, 0x68, 0x9b, 0x3e, 0xc2, 0x80, 0x73, 0x3d, 0x4d, 0xa3, 0x6a, 0xbd,
//   0x93, 0xcf, 0xc9, 0x3e, 0xa4, 0x48, 0x0f, 0xbb, 0xeb, 0x80, 0x22, 0x3f,
//   0x68, 0x9e, 0xef, 0x3d, 0x36, 0x14, 0x53, 0x3c, 0x97, 0x06, 0x4c, 0xbe,
//   0x1f, 0x4b, 0xff, 0x3e, 0x18, 0xf5, 0x92, 0x3f, 0x92, 0x86, 0x0d, 0xbf,
//   0xe5, 0x99, 0x40, 0x3d, 0xa8, 0xfa, 0x91, 0x3e, 0x60, 0xcc, 0x5c, 0x3f,
//   0x61, 0xb5, 0xaf, 0xbd, 0x4e, 0x6e, 0xb6, 0xbe, 0x7b, 0xa0, 0xac, 0xbd,
//   0xd6, 0x12, 0x1e, 0xbd, 0xb0, 0x6c, 0x31, 0xbf, 0x34, 0x13, 0xb2, 0x3d,
//   0x61, 0xde, 0x1e, 0x3f, 0x89, 0x34, 0xb0, 0xbe, 0x1c, 0xbc, 0x21, 0x3f,
//   0xd2, 0x49, 0x12, 0x40, 0xf2, 0xe0, 0xe9, 0xbe, 0x5a, 0x21, 0x79, 0x3e,
//   0xe2, 0xd7, 0x9e, 0x3e, 0xaa, 0x06, 0x15, 0x3f, 0xd4, 0x14, 0x7c, 0x3e,
//   0x06, 0x88, 0x83, 0x3e, 0xb1, 0x96, 0x4a, 0xbc, 0xb0, 0xba, 0x87, 0xbe,
//   0xc4, 0x92, 0x21, 0x3d, 0x88, 0xc1, 0x66, 0xbf, 0x95, 0x85, 0x9a, 0x3f,
//   0x75, 0x7f, 0xa1, 0xbe, 0x98, 0x17, 0xbd, 0x3e, 0xac, 0x72, 0x96, 0xbf,
//   0x07, 0x5e, 0x2b, 0x3e, 0xc3, 0x65, 0x45, 0x3b, 0xaf, 0x86, 0x27, 0x3e,
//   0x57, 0xcc, 0x1b, 0x3d, 0xa7, 0xef, 0xa7, 0x3e, 0x52, 0x3d, 0x70, 0x3f,
//   0x16, 0xec, 0xff, 0xff, 0x04, 0x00, 0x00, 0x00, 0x44, 0x01, 0x00, 0x00,
//   0x2d, 0x52, 0xd6, 0x3e, 0xbf, 0x25, 0x1f, 0xbf, 0xe4, 0xe2, 0xe4, 0xbe,
//   0xc3, 0xf0, 0x0e, 0x3f, 0xd2, 0xf9, 0x10, 0x3f, 0x14, 0x47, 0x87, 0x3f,
//   0x4f, 0xc5, 0x5f, 0xbf, 0x94, 0x09, 0xc7, 0xbd, 0x91, 0xd9, 0x33, 0xbf,
//   0xac, 0xf4, 0xde, 0xbd, 0x2f, 0x1b, 0x15, 0xbf, 0x81, 0x62, 0x1e, 0x3f,
//   0x7e, 0xca, 0x40, 0x3f, 0x8f, 0x0e, 0xdc, 0xbe, 0xb7, 0x15, 0x85, 0x3f,
//   0x7c, 0xb1, 0x1b, 0x3e, 0x34, 0x04, 0x17, 0x3d, 0xe8, 0x0c, 0xbc, 0x3e,
//   0xd9, 0xd4, 0x4a, 0xbe, 0x9c, 0x80, 0x12, 0xbf, 0xaf, 0xc3, 0x10, 0x3f,
//   0x9a, 0x16, 0xa9, 0x3f, 0xdd, 0xaf, 0x76, 0xbe, 0x27, 0x94, 0xc2, 0xbd,
//   0x4f, 0x0e, 0x1a, 0x3f, 0x14, 0xb6, 0x36, 0xbf, 0x92, 0xd2, 0xfc, 0x3c,
//   0xb5, 0x7d, 0xef, 0x3e, 0xa2, 0xe9, 0x83, 0x3d, 0x67, 0x37, 0x4b, 0x3e,
//   0x80, 0x5f, 0x86, 0x3e, 0x38, 0xcf, 0x8d, 0x3e, 0x9b, 0x6e, 0x40, 0x3f,
//   0x8a, 0x2f, 0xcf, 0x3d, 0x38, 0x9c, 0x5e, 0xbf, 0xb2, 0xa7, 0xad, 0x3e,
//   0xdd, 0x3e, 0x9b, 0xbd, 0x82, 0x1c, 0x0d, 0x3f, 0xfd, 0x62, 0x61, 0xbf,
//   0x8a, 0x56, 0x68, 0x3e, 0x77, 0x09, 0x06, 0xbe, 0x9f, 0x8b, 0x6f, 0x3f,
//   0xf6, 0x9c, 0x78, 0x3f, 0x1d, 0x45, 0x4b, 0xbf, 0x84, 0x34, 0xfe, 0xbe,
//   0x1e, 0x7c, 0xf0, 0xbe, 0x4e, 0x47, 0xcd, 0x3e, 0x1e, 0xf1, 0xd4, 0xbd,
//   0xfb, 0x3b, 0xf9, 0xbe, 0xc1, 0xcf, 0x30, 0xbf, 0x96, 0x8a, 0x84, 0xbf,
//   0x16, 0x7a, 0xe5, 0x3e, 0x52, 0x6f, 0x9b, 0xbe, 0x66, 0xb5, 0x9b, 0xbe,
//   0xaa, 0x21, 0xe3, 0xbd, 0x65, 0x44, 0x2c, 0x3f, 0xd1, 0x69, 0x05, 0x3f,
//   0xb4, 0x23, 0xa6, 0xbf, 0x68, 0x2d, 0x3a, 0xbf, 0xdd, 0xcc, 0x63, 0xbf,
//   0x84, 0xa6, 0x04, 0xbe, 0xb4, 0x2d, 0x36, 0xbf, 0xb5, 0xa6, 0xc6, 0xbe,
//   0xd0, 0xe2, 0xc6, 0xbe, 0x7a, 0xb2, 0xca, 0x3e, 0xe6, 0xf2, 0xf8, 0xbe,
//   0x0c, 0xc6, 0x40, 0xbe, 0xed, 0x30, 0x4f, 0x3e, 0x92, 0x8b, 0x71, 0xbf,
//   0xb1, 0x38, 0x52, 0x3f, 0x1b, 0xd3, 0x71, 0x3f, 0xd5, 0x27, 0x12, 0xbf,
//   0x22, 0x2d, 0x2c, 0xbf, 0x75, 0x4b, 0x11, 0x3f, 0x78, 0xe4, 0x46, 0x3f,
//   0x3f, 0xdc, 0x96, 0xbe, 0x23, 0xaa, 0xab, 0xbd, 0xbc, 0xab, 0xfa, 0xbd,
//   0x66, 0x52, 0xec, 0x3e, 0x3e, 0x34, 0x45, 0xbe, 0xe1, 0x07, 0x01, 0xbf,
//   0x66, 0xed, 0xff, 0xff, 0x04, 0x00, 0x00, 0x00, 0x38, 0x00, 0x00, 0x00,
//   0x22, 0x75, 0x64, 0x3e, 0xc6, 0xe5, 0x09, 0xc0, 0x4e, 0x56, 0xc5, 0xbf,
//   0x56, 0x36, 0x60, 0x3f, 0xe8, 0xe8, 0x64, 0x3d, 0x50, 0xdb, 0xc9, 0xbc,
//   0x20, 0xf8, 0x68, 0x3d, 0x33, 0x31, 0x80, 0x3f, 0xa2, 0x63, 0x9a, 0xbf,
//   0x03, 0x3d, 0x85, 0xbe, 0x60, 0x4f, 0xc5, 0xbd, 0xa8, 0xc3, 0x97, 0x3d,
//   0xb1, 0x41, 0x63, 0x3f, 0x9e, 0x29, 0x72, 0xbf, 0xaa, 0xed, 0xff, 0xff,
//   0x04, 0x00, 0x00, 0x00, 0xd8, 0x00, 0x00, 0x00, 0xce, 0x2f, 0xae, 0xbe,
//   0x25, 0x0d, 0x8b, 0x3e, 0x9c, 0x65, 0x47, 0xbd, 0xad, 0x3a, 0xc9, 0xbe,
//   0x70, 0x81, 0xa6, 0xbe, 0x28, 0x53, 0x7a, 0xbf, 0xa1, 0x4c, 0x40, 0x3f,
//   0xe4, 0x42, 0x97, 0x3f, 0x83, 0xe2, 0x73, 0xbc, 0x59, 0x17, 0xa3, 0xbe,
//   0xf7, 0x08, 0xed, 0xbe, 0x8f, 0x87, 0x5b, 0xbf, 0xe4, 0x55, 0x08, 0xbf,
//   0xeb, 0x08, 0xda, 0xbe, 0x03, 0x78, 0x89, 0xbe, 0xcd, 0x1c, 0xa8, 0xbe,
//   0x04, 0xf4, 0x87, 0xbe, 0x06, 0xfd, 0xaa, 0x3e, 0xb0, 0x4d, 0x85, 0xbe,
//   0x29, 0x55, 0xc8, 0x3e, 0x05, 0xcd, 0xbb, 0xbf, 0x43, 0x15, 0x1b, 0x3d,
//   0x40, 0xb5, 0xa3, 0x3e, 0x84, 0x54, 0x64, 0x3f, 0x02, 0xcd, 0xad, 0xbe,
//   0x35, 0x00, 0xb9, 0x3c, 0xf4, 0x14, 0x60, 0xbe, 0x32, 0x31, 0xac, 0x3e,
//   0xdd, 0xd2, 0xbe, 0xbe, 0x1d, 0x8b, 0x26, 0x3f, 0x0b, 0x4b, 0x2b, 0xbf,
//   0x83, 0x4a, 0x8b, 0xbe, 0x2b, 0x6d, 0x0a, 0x3f, 0x4e, 0x7a, 0xae, 0x3e,
//   0x59, 0xe7, 0x2e, 0xbe, 0x6e, 0xf9, 0xaa, 0x3e, 0x69, 0xb4, 0xc3, 0xbe,
//   0x50, 0x74, 0x0a, 0x3f, 0x42, 0x52, 0xd0, 0xbe, 0x4c, 0x39, 0x04, 0xbe,
//   0x6d, 0x1c, 0x9b, 0xbe, 0x22, 0x4e, 0x95, 0x3e, 0x86, 0x26, 0xae, 0x3e,
//   0x22, 0xf6, 0x63, 0x3e, 0xd7, 0x5e, 0xe8, 0xbd, 0x00, 0x15, 0xb4, 0x3e,
//   0x8c, 0xe3, 0x84, 0x3e, 0xef, 0xb0, 0x9c, 0xbe, 0x77, 0xbf, 0x44, 0xbe,
//   0xf1, 0xef, 0x2f, 0x3e, 0x1d, 0x85, 0x84, 0xbc, 0xc8, 0x6c, 0x8d, 0xbe,
//   0xdd, 0x57, 0x19, 0x3f, 0x1d, 0xcc, 0xfa, 0x3e, 0x8e, 0xee, 0xff, 0xff,
//   0x04, 0x00, 0x00, 0x00, 0xd8, 0x00, 0x00, 0x00, 0x5a, 0x60, 0x71, 0xbd,
//   0x28, 0xc7, 0x33, 0x3e, 0x0a, 0x33, 0x4e, 0x3e, 0x45, 0x8c, 0xcd, 0xbf,
//   0xc4, 0xc9, 0xf9, 0x3f, 0x9f, 0xb3, 0x7e, 0xbf, 0x9f, 0xa9, 0x83, 0xbe,
//   0xe1, 0x41, 0x19, 0x3f, 0x0f, 0x11, 0x6e, 0x3e, 0xd3, 0xc2, 0x5e, 0xbf,
//   0xed, 0xce, 0xc3, 0xbc, 0x17, 0xe3, 0x00, 0x3f, 0x11, 0x33, 0x22, 0x3f,
//   0x92, 0xb5, 0x8b, 0xbf, 0x40, 0x05, 0xe6, 0x3d, 0x62, 0x4d, 0xa3, 0x3f,
//   0x48, 0x06, 0x59, 0xbf, 0x1a, 0xcc, 0xa4, 0x3e, 0x3d, 0x35, 0x40, 0xbf,
//   0xa3, 0x9f, 0x10, 0x3f, 0xa9, 0x13, 0x10, 0xbf, 0xc5, 0x8c, 0x0e, 0x3f,
//   0x4e, 0xef, 0xc2, 0x3b, 0x94, 0xb3, 0x30, 0xbf, 0x09, 0xbc, 0xe4, 0xbe,
//   0xa4, 0x87, 0x2e, 0x3e, 0xe8, 0xa3, 0xc4, 0x3e, 0x08, 0x6b, 0x5d, 0xbf,
//   0xb7, 0x1a, 0xaf, 0xbf, 0x37, 0xe7, 0x85, 0x3f, 0x98, 0x6d, 0x15, 0xbf,
//   0x12, 0x10, 0x95, 0xbe, 0x27, 0x1b, 0x28, 0x3e, 0x7d, 0x81, 0x50, 0xbf,
//   0xae, 0xf8, 0x96, 0xbe, 0x0e, 0xa6, 0x9e, 0xbf, 0x74, 0xa3, 0x72, 0x3d,
//   0x94, 0x92, 0x1a, 0x3e, 0x99, 0xb2, 0x5a, 0xbf, 0x3a, 0x66, 0xbd, 0x3c,
//   0xfe, 0x20, 0xd1, 0xbf, 0x7a, 0xaf, 0x88, 0x3f, 0x00, 0x42, 0x57, 0x3c,
//   0xf7, 0xd2, 0x2e, 0x3f, 0x2d, 0x66, 0x0c, 0xbf, 0xe8, 0xa7, 0xe2, 0x3f,
//   0xfa, 0x35, 0x0e, 0x3e, 0x03, 0xaf, 0xa2, 0x3d, 0xc2, 0x21, 0xb9, 0xbe,
//   0x6a, 0x9c, 0x94, 0x3f, 0x37, 0x84, 0x00, 0xbe, 0x17, 0x8c, 0xc1, 0x3e,
//   0xa2, 0xb3, 0x9b, 0x3f, 0x5f, 0xb3, 0x05, 0xbf, 0x72, 0xef, 0xff, 0xff,
//   0x04, 0x00, 0x00, 0x00, 0x24, 0x00, 0x00, 0x00, 0x24, 0x3a, 0xf5, 0x3f,
//   0xbb, 0x1b, 0x35, 0xbf, 0xb6, 0x43, 0xb5, 0xbf, 0x29, 0x00, 0x02, 0x40,
//   0xd4, 0xa7, 0x1c, 0x3f, 0xac, 0x0f, 0x05, 0xbd, 0x3d, 0x92, 0x36, 0x3f,
//   0x73, 0xcf, 0xae, 0x3f, 0x3d, 0xfd, 0x8d, 0xbf, 0xa2, 0xef, 0xff, 0xff,
//   0x04, 0x00, 0x00, 0x00, 0xd8, 0x00, 0x00, 0x00, 0x23, 0x5e, 0x12, 0xbe,
//   0x5d, 0xfd, 0x02, 0xbd, 0x53, 0x78, 0x82, 0xbe, 0x8e, 0x79, 0x24, 0x3e,
//   0x64, 0xd9, 0xd7, 0x3e, 0xe4, 0xf8, 0xf5, 0xbe, 0xd8, 0x99, 0x2b, 0x3e,
//   0x8a, 0x61, 0xec, 0x3e, 0xa6, 0x92, 0xc4, 0xbe, 0x0d, 0xc4, 0xaf, 0x3e,
//   0x4e, 0xb6, 0xf5, 0xbe, 0xfb, 0x5c, 0x23, 0x3d, 0x20, 0x3b, 0x0f, 0x3f,
//   0xf9, 0x04, 0xd0, 0x3e, 0x0c, 0x5a, 0xde, 0xbc, 0xdb, 0x9f, 0x82, 0x3d,
//   0xa6, 0x76, 0xec, 0xbe, 0xea, 0x5b, 0xd9, 0x3e, 0x22, 0x0d, 0x1a, 0xbf,
//   0x08, 0xdf, 0xc9, 0xbe, 0xef, 0xad, 0x1a, 0x3d, 0x3f, 0xaf, 0x17, 0x3e,
//   0x6e, 0x27, 0xa6, 0x3e, 0xec, 0x08, 0x63, 0xbe, 0x7c, 0x52, 0xf8, 0x3d,
//   0x2c, 0x2a, 0x32, 0xbd, 0xfe, 0x28, 0x0e, 0xbe, 0xe2, 0x72, 0x81, 0x3e,
//   0x3c, 0xd5, 0x06, 0xbf, 0xd9, 0x30, 0xcd, 0xbe, 0xc9, 0x6b, 0xbd, 0x3e,
//   0xd9, 0xd3, 0x3e, 0xbe, 0x72, 0x49, 0x79, 0xbe, 0x7f, 0xb7, 0xe1, 0x3e,
//   0x99, 0xc4, 0x04, 0xbf, 0x8a, 0x95, 0x66, 0xbe, 0xc3, 0x4b, 0x89, 0x3f,
//   0x19, 0xed, 0xd4, 0xbe, 0x87, 0x3c, 0xbf, 0xbe, 0x11, 0xdd, 0xc3, 0x3e,
//   0x5b, 0x10, 0x0a, 0xbe, 0xc4, 0x30, 0x84, 0x3e, 0xd4, 0x8a, 0x31, 0x3f,
//   0x06, 0x60, 0x0b, 0xbe, 0x99, 0x01, 0x2b, 0xbf, 0x3f, 0x8f, 0x34, 0xbd,
//   0x9a, 0x29, 0xce, 0xbe, 0xe3, 0xb0, 0x90, 0xbd, 0x7b, 0x80, 0xe3, 0xbd,
//   0x69, 0xe7, 0x07, 0x3e, 0x5a, 0x47, 0xe2, 0xbe, 0x91, 0x02, 0xdd, 0x3d,
//   0x78, 0x06, 0xe8, 0x3e, 0xf5, 0x7e, 0xee, 0x3e, 0x86, 0xf0, 0xff, 0xff,
//   0x04, 0x00, 0x00, 0x00, 0x44, 0x01, 0x00, 0x00, 0xd3, 0x52, 0xcb, 0xbf,
//   0xbc, 0x0b, 0xc6, 0x3e, 0xee, 0xf5, 0x21, 0xbd, 0x21, 0x18, 0x44, 0xbd,
//   0xcd, 0x14, 0x06, 0x3e, 0x32, 0x88, 0x77, 0x3e, 0xc2, 0x8d, 0x99, 0xbf,
//   0xb1, 0x96, 0x12, 0xbf, 0x08, 0x04, 0x36, 0x3e, 0x42, 0xbc, 0x05, 0x40,
//   0x05, 0xeb, 0xc2, 0x3e, 0x60, 0x17, 0x3d, 0x3e, 0x33, 0x04, 0x39, 0xbf,
//   0x4b, 0x87, 0xcf, 0xbe, 0x2b, 0x34, 0xb2, 0x3e, 0xda, 0x10, 0x97, 0x3e,
//   0x13, 0x8d, 0x9c, 0xbe, 0x50, 0x8e, 0xc2, 0x3d, 0x93, 0x29, 0x20, 0x40,
//   0xc2, 0x78, 0x24, 0x3e, 0x8c, 0x7c, 0x02, 0x3e, 0xc5, 0xa5, 0x1b, 0x3f,
//   0xed, 0xd4, 0x86, 0xbe, 0x16, 0x9f, 0x92, 0x3b, 0xbb, 0xb8, 0x4b, 0x3e,
//   0x05, 0x37, 0x31, 0xbf, 0x58, 0x2d, 0x04, 0x3f, 0x06, 0x1d, 0xf7, 0xbf,
//   0xbd, 0xdf, 0x30, 0x3e, 0xd7, 0x48, 0x33, 0xbd, 0xba, 0x31, 0x08, 0xbf,
//   0x37, 0x03, 0x90, 0xbd, 0xbe, 0x53, 0x85, 0x3e, 0xaa, 0x69, 0xa4, 0xbe,
//   0xdf, 0xd8, 0xd7, 0x3d, 0x61, 0xae, 0x46, 0xbf, 0x19, 0x2b, 0x83, 0xbf,
//   0xfd, 0xa8, 0x6d, 0x3e, 0xe4, 0xa0, 0x10, 0x3f, 0x05, 0xc4, 0xa4, 0xbe,
//   0x04, 0x68, 0xce, 0xbe, 0xa9, 0x5a, 0xbe, 0x3e, 0xae, 0xe6, 0x2c, 0x3e,
//   0x2d, 0xf5, 0xe2, 0xbe, 0x45, 0xe8, 0x2a, 0xbf, 0x00, 0x43, 0xa4, 0x3c,
//   0x28, 0xe4, 0x6a, 0xbd, 0x9b, 0x37, 0xdf, 0x3e, 0x42, 0x4e, 0xb2, 0xbd,
//   0xc2, 0xf1, 0x9a, 0xbe, 0xbb, 0xc6, 0x5c, 0x3e, 0x4a, 0x67, 0x66, 0x3f,
//   0x84, 0xdb, 0x02, 0xbf, 0x0f, 0xe3, 0x84, 0xbe, 0xcb, 0xb0, 0x8f, 0x3e,
//   0x70, 0x14, 0x3c, 0x3e, 0xa0, 0x35, 0x5b, 0x3e, 0x02, 0xc5, 0x8f, 0xbe,
//   0x3b, 0x2c, 0xbf, 0xbc, 0xea, 0xc3, 0xc8, 0x3b, 0x9c, 0x91, 0x36, 0x3e,
//   0xfa, 0xd7, 0x05, 0x3f, 0xad, 0x25, 0x4e, 0xbf, 0x5a, 0x79, 0x33, 0xbf,
//   0x5a, 0x1f, 0x02, 0x3d, 0x1a, 0xa6, 0xc2, 0x3e, 0xe1, 0xaf, 0x6f, 0xbf,
//   0x5f, 0x74, 0x2c, 0xbd, 0x8b, 0x6e, 0x5e, 0x3e, 0x12, 0x99, 0x93, 0x3f,
//   0x49, 0x29, 0x98, 0x3c, 0x31, 0xfb, 0xa1, 0xbf, 0x55, 0xc1, 0x31, 0x3e,
//   0x81, 0x82, 0x8f, 0x3d, 0xb7, 0xa7, 0x7c, 0x3e, 0x0d, 0xb7, 0x8b, 0x3e,
//   0xb1, 0x65, 0x3f, 0xbe, 0x8f, 0xa3, 0x48, 0xbd, 0x8d, 0x9a, 0x53, 0x3f,
//   0xb5, 0x16, 0x0f, 0x3f, 0xf3, 0x90, 0x6e, 0xbe, 0xd6, 0xf1, 0xff, 0xff,
//   0x04, 0x00, 0x00, 0x00, 0xd8, 0x00, 0x00, 0x00, 0x54, 0xb3, 0xf9, 0xbe,
//   0x43, 0x34, 0xc7, 0x3d, 0x13, 0xbf, 0x4c, 0xbf, 0xf8, 0x95, 0x0a, 0xbf,
//   0xdb, 0x53, 0x67, 0x3e, 0xc9, 0xc4, 0x77, 0xbc, 0x39, 0x57, 0x06, 0xbf,
//   0xd5, 0x21, 0x83, 0x3c, 0x18, 0xce, 0xa5, 0xbe, 0xf1, 0xd6, 0x38, 0x3e,
//   0x04, 0x2b, 0xbd, 0x3f, 0x5f, 0xdf, 0x33, 0xbf, 0xa1, 0x7b, 0x46, 0xbe,
//   0x10, 0xa4, 0x89, 0xbc, 0xf2, 0x12, 0xb0, 0xbc, 0x02, 0xe9, 0x89, 0xbe,
//   0xc9, 0xb1, 0x50, 0xbf, 0x93, 0x56, 0xf2, 0xbe, 0x68, 0x7a, 0xd7, 0x3e,
//   0x83, 0x99, 0x76, 0x3d, 0x66, 0x50, 0x1e, 0x3d, 0xb8, 0x2a, 0xbb, 0xbf,
//   0xc9, 0x47, 0xa3, 0x3e, 0x23, 0x7d, 0x1a, 0xbf, 0x7e, 0x99, 0x5d, 0xbf,
//   0x1e, 0xbf, 0x72, 0xbd, 0xd8, 0xd0, 0x91, 0x3a, 0x74, 0xad, 0x2e, 0xbe,
//   0xbc, 0xca, 0xbb, 0xbf, 0x05, 0x3c, 0x37, 0x3f, 0x44, 0xfe, 0x38, 0x3e,
//   0xa6, 0x67, 0x71, 0xbb, 0xe1, 0xeb, 0x35, 0xbd, 0x6c, 0x0e, 0x70, 0x3f,
//   0xf8, 0x0a, 0xd5, 0x3e, 0xe2, 0xed, 0x4c, 0x3e, 0x0c, 0x39, 0xd6, 0xbb,
//   0x76, 0x7c, 0x35, 0x3e, 0xf5, 0xb2, 0x9f, 0xbe, 0x66, 0x3b, 0x4e, 0x3f,
//   0x13, 0x7d, 0x54, 0xbf, 0xe8, 0x40, 0x28, 0xbf, 0x73, 0x6d, 0x0f, 0xbd,
//   0x2e, 0xe5, 0xba, 0x3e, 0xb6, 0x0e, 0xde, 0xbe, 0x24, 0x32, 0x94, 0x3f,
//   0xbf, 0x85, 0xd1, 0x3f, 0x75, 0xf9, 0xbc, 0xbe, 0xd5, 0x8a, 0x4f, 0x3f,
//   0xe1, 0xbe, 0xdf, 0x3d, 0x79, 0xa6, 0xbd, 0xbe, 0x03, 0x04, 0x0f, 0x40,
//   0x6d, 0xf7, 0x73, 0xbf, 0x11, 0xb7, 0x33, 0x3f, 0xba, 0xf2, 0xff, 0xff,
//   0x04, 0x00, 0x00, 0x00, 0x38, 0x00, 0x00, 0x00, 0x80, 0x78, 0x03, 0x40,
//   0x9a, 0x96, 0x6a, 0xbf, 0xac, 0xb6, 0x9f, 0xbf, 0x68, 0x14, 0xfa, 0xbe,
//   0x83, 0x75, 0x5e, 0xbf, 0xdc, 0x36, 0x5a, 0xbf, 0x68, 0xd5, 0xc3, 0x3d,
//   0x6d, 0x53, 0xed, 0xbf, 0xac, 0x78, 0xd4, 0x3f, 0x6a, 0xde, 0x4b, 0xbf,
//   0x51, 0x20, 0x32, 0x40, 0xa5, 0x46, 0x85, 0xbf, 0x13, 0xc4, 0xf0, 0xbe,
//   0x7d, 0x30, 0xd4, 0x3f, 0xfe, 0xf2, 0xff, 0xff, 0x04, 0x00, 0x00, 0x00,
//   0x24, 0x00, 0x00, 0x00, 0x92, 0x77, 0xa7, 0x3e, 0x8a, 0x4f, 0x96, 0xbd,
//   0x72, 0xad, 0x19, 0xbf, 0xf6, 0x1c, 0x86, 0xbf, 0xdc, 0x79, 0x80, 0xbd,
//   0xa2, 0x15, 0xae, 0xbe, 0x46, 0x36, 0x1a, 0x3e, 0x8f, 0x66, 0x50, 0xbe,
//   0x51, 0x63, 0x3c, 0xbe, 0x2e, 0xf3, 0xff, 0xff, 0x04, 0x00, 0x00, 0x00,
//   0x24, 0x00, 0x00, 0x00, 0x30, 0x2a, 0xd9, 0xbf, 0x08, 0x1a, 0x35, 0x3e,
//   0x4b, 0xa5, 0x8c, 0x3e, 0x6c, 0xc5, 0x36, 0xbe, 0x9b, 0x7f, 0xe2, 0xbe,
//   0xca, 0xfc, 0x66, 0xbf, 0xbf, 0x42, 0x35, 0xc0, 0x64, 0xb5, 0x95, 0x3f,
//   0x79, 0xf2, 0x5f, 0x3f, 0x5e, 0xf3, 0xff, 0xff, 0x04, 0x00, 0x00, 0x00,
//   0x38, 0x00, 0x00, 0x00, 0xb4, 0x90, 0xae, 0xbf, 0xb0, 0xf5, 0xe8, 0xbe,
//   0xfd, 0x36, 0xff, 0xbe, 0xc2, 0x1d, 0x0a, 0x40, 0x74, 0xb8, 0xf7, 0xbe,
//   0x92, 0xf2, 0x0c, 0x40, 0x67, 0x5e, 0x63, 0xbf, 0xef, 0xab, 0x7c, 0x3e,
//   0x3e, 0x15, 0xcd, 0x3f, 0xbc, 0xe1, 0xf0, 0x3f, 0x2a, 0xae, 0x61, 0x3f,
//   0xdc, 0x12, 0x51, 0xbd, 0x61, 0x49, 0x2c, 0xbf, 0x76, 0x65, 0x89, 0xbf,
//   0xa2, 0xf3, 0xff, 0xff, 0x04, 0x00, 0x00, 0x00, 0x24, 0x00, 0x00, 0x00,
//   0x2c, 0x58, 0x4d, 0x3f, 0x80, 0x38, 0x46, 0xbf, 0x66, 0xec, 0xff, 0xbe,
//   0x52, 0xba, 0xe3, 0xbe, 0xc0, 0xc0, 0x89, 0x3f, 0xe7, 0x06, 0xbd, 0xbe,
//   0x26, 0x85, 0x86, 0xbf, 0x66, 0xd7, 0xb4, 0x3f, 0xf7, 0x06, 0x3e, 0x3f,
//   0xd2, 0xf3, 0xff, 0xff, 0x04, 0x00, 0x00, 0x00, 0x24, 0x00, 0x00, 0x00,
//   0xa4, 0x44, 0xdf, 0x3f, 0x05, 0x01, 0x9a, 0x3f, 0xeb, 0x8a, 0x27, 0x3f,
//   0x37, 0x38, 0x55, 0x3f, 0xb0, 0x24, 0x9d, 0x3f, 0x68, 0x56, 0x2b, 0x3f,
//   0xc3, 0x82, 0x93, 0x3f, 0x1e, 0xab, 0x14, 0x3e, 0x29, 0x75, 0xeb, 0x3e,
//   0x02, 0xf4, 0xff, 0xff, 0x04, 0x00, 0x00, 0x00, 0x18, 0x00, 0x00, 0x00,
//   0xb8, 0x09, 0x8b, 0x3f, 0xc8, 0x06, 0x11, 0xbf, 0x67, 0xf7, 0x9d, 0x3f,
//   0x97, 0xff, 0xaa, 0x3e, 0x41, 0xfe, 0xcb, 0x3e, 0x9b, 0xc5, 0x62, 0xbe,
//   0x26, 0xf4, 0xff, 0xff, 0x04, 0x00, 0x00, 0x00, 0x18, 0x00, 0x00, 0x00,
//   0xa1, 0xe8, 0x81, 0xbf, 0x1b, 0x55, 0x76, 0xbf, 0x28, 0x2a, 0x0e, 0x40,
//   0xc4, 0x2b, 0x91, 0xbf, 0x59, 0x5b, 0xcb, 0xbf, 0x54, 0x0c, 0x11, 0x3f,
//   0x4a, 0xf4, 0xff, 0xff, 0x04, 0x00, 0x00, 0x00, 0x18, 0x00, 0x00, 0x00,
//   0xe5, 0x58, 0x28, 0x3f, 0xd1, 0x5f, 0x12, 0xbf, 0x22, 0x43, 0x43, 0x3f,
//   0x93, 0x49, 0x41, 0x3e, 0x02, 0x47, 0xaa, 0x3e, 0xc8, 0x5a, 0xff, 0x3d,
//   0x6e, 0xf4, 0xff, 0xff, 0x04, 0x00, 0x00, 0x00, 0x18, 0x00, 0x00, 0x00,
//   0xfe, 0x3c, 0x39, 0x3e, 0x2c, 0xe5, 0x67, 0x3f, 0xec, 0x42, 0xdb, 0x3e,
//   0x00, 0x09, 0x85, 0xbd, 0x16, 0x4e, 0x63, 0xbe, 0xb2, 0x5d, 0xba, 0x3e,
//   0x92, 0xf4, 0xff, 0xff, 0x04, 0x00, 0x00, 0x00, 0x18, 0x00, 0x00, 0x00,
//   0x34, 0x34, 0x6e, 0xbe, 0xbe, 0xb6, 0x72, 0x3f, 0xee, 0xeb, 0x05, 0x40,
//   0x28, 0x40, 0x58, 0xbf, 0x98, 0x6f, 0x9a, 0x3f, 0xac, 0x63, 0xde, 0x3d,
//   0xb6, 0xf4, 0xff, 0xff, 0x04, 0x00, 0x00, 0x00, 0x18, 0x00, 0x00, 0x00,
//   0x08, 0xd6, 0xef, 0x3d, 0xbe, 0xc7, 0x14, 0x3f, 0x55, 0xac, 0xa8, 0xbe,
//   0xa4, 0xd2, 0xc0, 0xbe, 0x08, 0xc1, 0xe5, 0x3f, 0x85, 0x27, 0xfa, 0xbe,
//   0xda, 0xf4, 0xff, 0xff, 0x04, 0x00, 0x00, 0x00, 0x24, 0x00, 0x00, 0x00,
//   0xcb, 0x45, 0x15, 0x3e, 0xa0, 0x53, 0x4d, 0xbf, 0x4c, 0x7a, 0xd1, 0xbd,
//   0x3c, 0x92, 0xa0, 0x3f, 0x0c, 0x02, 0x8e, 0x3f, 0xe8, 0x77, 0x41, 0xbe,
//   0x22, 0x88, 0x2e, 0xbf, 0x51, 0x89, 0x25, 0x3f, 0xfb, 0xb4, 0x10, 0x40,
//   0x0a, 0xf5, 0xff, 0xff, 0x04, 0x00, 0x00, 0x00, 0x18, 0x00, 0x00, 0x00,
//   0x15, 0xcf, 0x89, 0x3f, 0x82, 0x65, 0x20, 0x3e, 0x03, 0xfa, 0x31, 0x3f,
//   0x68, 0x16, 0x0d, 0xbf, 0x49, 0x17, 0x1f, 0xbd, 0x43, 0x4c, 0xe5, 0x3e,
//   0x2e, 0xf5, 0xff, 0xff, 0x04, 0x00, 0x00, 0x00, 0x18, 0x00, 0x00, 0x00,
//   0x8c, 0x7c, 0x5d, 0x3f, 0xbf, 0x11, 0xa5, 0xbe, 0x3c, 0x52, 0x13, 0xc0,
//   0x7d, 0x60, 0xc2, 0x3f, 0x77, 0x7f, 0x0e, 0xbf, 0x66, 0x98, 0x87, 0xbf,
//   0x52, 0xf5, 0xff, 0xff, 0x04, 0x00, 0x00, 0x00, 0x10, 0x00, 0x00, 0x00,
//   0x1d, 0x36, 0xb2, 0xbf, 0xbe, 0x4b, 0x49, 0x3f, 0x16, 0x8a, 0x51, 0xbe,
//   0xc0, 0x0f, 0xe0, 0x3c, 0x6e, 0xf5, 0xff, 0xff, 0x04, 0x00, 0x00, 0x00,
//   0x10, 0x00, 0x00, 0x00, 0x0f, 0xa1, 0x72, 0x3f, 0x46, 0x3f, 0x34, 0xbe,
//   0x9c, 0x3c, 0xef, 0xbe, 0x25, 0x8d, 0xd6, 0xbe, 0x8a, 0xf5, 0xff, 0xff,
//   0x04, 0x00, 0x00, 0x00, 0x10, 0x00, 0x00, 0x00, 0x42, 0x82, 0x5f, 0x3f,
//   0x97, 0x0a, 0x82, 0x40, 0x5e, 0xf5, 0x0b, 0x40, 0xa0, 0xbb, 0xc4, 0xbb,
//   0x00, 0xbf, 0xff, 0xff, 0x04, 0xbf, 0xff, 0xff, 0x0f, 0x00, 0x00, 0x00,
//   0x4d, 0x4c, 0x49, 0x52, 0x20, 0x43, 0x6f, 0x6e, 0x76, 0x65, 0x72, 0x74,
//   0x65, 0x64, 0x2e, 0x00, 0x01, 0x00, 0x00, 0x00, 0x14, 0x00, 0x00, 0x00,
//   0x00, 0x00, 0x0e, 0x00, 0x18, 0x00, 0x14, 0x00, 0x10, 0x00, 0x0c, 0x00,
//   0x08, 0x00, 0x04, 0x00, 0x0e, 0x00, 0x00, 0x00, 0x14, 0x00, 0x00, 0x00,
//   0x1c, 0x00, 0x00, 0x00, 0x34, 0x0c, 0x00, 0x00, 0x38, 0x0c, 0x00, 0x00,
//   0x3c, 0x0c, 0x00, 0x00, 0x04, 0x00, 0x00, 0x00, 0x6d, 0x61, 0x69, 0x6e,
//   0x00, 0x00, 0x00, 0x00, 0x30, 0x00, 0x00, 0x00, 0xd0, 0x0b, 0x00, 0x00,
//   0x80, 0x0b, 0x00, 0x00, 0x40, 0x0b, 0x00, 0x00, 0x0c, 0x0b, 0x00, 0x00,
//   0xbc, 0x0a, 0x00, 0x00, 0x64, 0x0a, 0x00, 0x00, 0x08, 0x0a, 0x00, 0x00,
//   0xc8, 0x09, 0x00, 0x00, 0x80, 0x09, 0x00, 0x00, 0x40, 0x09, 0x00, 0x00,
//   0xf8, 0x08, 0x00, 0x00, 0xb4, 0x08, 0x00, 0x00, 0x7c, 0x08, 0x00, 0x00,
//   0x34, 0x08, 0x00, 0x00, 0xf0, 0x07, 0x00, 0x00, 0xb0, 0x07, 0x00, 0x00,
//   0x68, 0x07, 0x00, 0x00, 0x24, 0x07, 0x00, 0x00, 0xec, 0x06, 0x00, 0x00,
//   0xac, 0x06, 0x00, 0x00, 0x64, 0x06, 0x00, 0x00, 0x20, 0x06, 0x00, 0x00,
//   0xe8, 0x05, 0x00, 0x00, 0xb4, 0x05, 0x00, 0x00, 0x78, 0x05, 0x00, 0x00,
//   0x38, 0x05, 0x00, 0x00, 0xf0, 0x04, 0x00, 0x00, 0xac, 0x04, 0x00, 0x00,
//   0x74, 0x04, 0x00, 0x00, 0x2c, 0x04, 0x00, 0x00, 0xec, 0x03, 0x00, 0x00,
//   0xa4, 0x03, 0x00, 0x00, 0x60, 0x03, 0x00, 0x00, 0x28, 0x03, 0x00, 0x00,
//   0xf4, 0x02, 0x00, 0x00, 0xa4, 0x02, 0x00, 0x00, 0x70, 0x02, 0x00, 0x00,
//   0x2c, 0x02, 0x00, 0x00, 0xf4, 0x01, 0x00, 0x00, 0xd0, 0x01, 0x00, 0x00,
//   0x90, 0x01, 0x00, 0x00, 0x40, 0x01, 0x00, 0x00, 0x00, 0x01, 0x00, 0x00,
//   0xd8, 0x00, 0x00, 0x00, 0xa4, 0x00, 0x00, 0x00, 0x70, 0x00, 0x00, 0x00,
//   0x38, 0x00, 0x00, 0x00, 0x04, 0x00, 0x00, 0x00, 0xb6, 0xf5, 0xff, 0xff,
//   0x14, 0x00, 0x00, 0x00, 0x00, 0x00, 0x00, 0x09, 0x14, 0x00, 0x00, 0x00,
//   0x18, 0x00, 0x00, 0x00, 0x0c, 0x00, 0x00, 0x00, 0xda, 0xf6, 0xff, 0xff,
//   0x00, 0x00, 0x80, 0x3f, 0x01, 0x00, 0x00, 0x00, 0x65, 0x00, 0x00, 0x00,
//   0x01, 0x00, 0x00, 0x00, 0x64, 0x00, 0x00, 0x00, 0xe6, 0xf5, 0xff, 0xff,
//   0x14, 0x00, 0x00, 0x00, 0x00, 0x00, 0x00, 0x08, 0x10, 0x00, 0x00, 0x00,
//   0x14, 0x00, 0x00, 0x00, 0x06, 0x00, 0x00, 0x00, 0x64, 0xc0, 0xff, 0xff,
//   0x01, 0x00, 0x00, 0x00, 0x64, 0x00, 0x00, 0x00, 0x03, 0x00, 0x00, 0x00,
//   0x63, 0x00, 0x00, 0x00, 0x35, 0x00, 0x00, 0x00, 0x32, 0x00, 0x00, 0x00,
//   0x1a, 0xf6, 0xff, 0xff, 0x14, 0x00, 0x00, 0x00, 0x00, 0x00, 0x00, 0x1b,
//   0x10, 0x00, 0x00, 0x00, 0x14, 0x00, 0x00, 0x00, 0x05, 0x00, 0x00, 0x00,
//   0x98, 0xc0, 0xff, 0xff, 0x01, 0x00, 0x00, 0x00, 0x63, 0x00, 0x00, 0x00,
//   0x02, 0x00, 0x00, 0x00, 0x62, 0x00, 0x00, 0x00, 0x2d, 0x00, 0x00, 0x00,
//   0x4a, 0xf6, 0xff, 0xff, 0x14, 0x00, 0x00, 0x00, 0x00, 0x00, 0x00, 0x15,
//   0x10, 0x00, 0x00, 0x00, 0x14, 0x00, 0x00, 0x00, 0x0b, 0x00, 0x00, 0x00,
//   0xc8, 0xc0, 0xff, 0xff, 0x01, 0x00, 0x00, 0x00, 0x62, 0x00, 0x00, 0x00,
//   0x02, 0x00, 0x00, 0x00, 0x59, 0x00, 0x00, 0x00, 0x61, 0x00, 0x00, 0x00,
//   0x22, 0xff, 0xff, 0xff, 0x0c, 0x00, 0x00, 0x00, 0x10, 0x00, 0x00, 0x00,
//   0x0a, 0x00, 0x00, 0x00, 0x01, 0x00, 0x00, 0x00, 0x61, 0x00, 0x00, 0x00,
//   0x02, 0x00, 0x00, 0x00, 0x5d, 0x00, 0x00, 0x00, 0x60, 0x00, 0x00, 0x00,
//   0x9e, 0xf6, 0xff, 0xff, 0x14, 0x00, 0x00, 0x00, 0x00, 0x00, 0x00, 0x3b,
//   0x14, 0x00, 0x00, 0x00, 0x18, 0x00, 0x00, 0x00, 0x09, 0x00, 0x00, 0x00,
//   0xc2, 0xf7, 0xff, 0xff, 0x04, 0x00, 0x00, 0x00, 0x01, 0x00, 0x00, 0x00,
//   0x60, 0x00, 0x00, 0x00, 0x04, 0x00, 0x00, 0x00, 0x5f, 0x00, 0x00, 0x00,
//   0x2e, 0x00, 0x00, 0x00, 0x2e, 0x00, 0x00, 0x00, 0x2f, 0x00, 0x00, 0x00,
//   0x7a, 0xf7, 0xff, 0xff, 0x24, 0x00, 0x00, 0x00, 0x00, 0x00, 0x00, 0x20,
//   0x24, 0x00, 0x00, 0x00, 0x28, 0x00, 0x00, 0x00, 0x03, 0x00, 0x00, 0x00,
//   0x00, 0x00, 0x0e, 0x00, 0x08, 0x00, 0x00, 0x00, 0x00, 0x00, 0x00, 0x00,
//   0x00, 0x00, 0x04, 0x00, 0x0e, 0x00, 0x00, 0x00, 0x01, 0x00, 0x00, 0x00,
//   0x01, 0x00, 0x00, 0x00, 0x5f, 0x00, 0x00, 0x00, 0x04, 0x00, 0x00, 0x00,
//   0x5e, 0x00, 0x00, 0x00, 0x30, 0x00, 0x00, 0x00, 0x31, 0x00, 0x00, 0x00,
//   0x31, 0x00, 0x00, 0x00, 0x26, 0xf7, 0xff, 0xff, 0x14, 0x00, 0x00, 0x00,
//   0x00, 0x00, 0x00, 0x37, 0x14, 0x00, 0x00, 0x00, 0x18, 0x00, 0x00, 0x00,
//   0x08, 0x00, 0x00, 0x00, 0x6e, 0xff, 0xff, 0xff, 0x00, 0x00, 0x00, 0x02,
//   0x01, 0x00, 0x00, 0x00, 0x5e, 0x00, 0x00, 0x00, 0x01, 0x00, 0x00, 0x00,
//   0x5d, 0x00, 0x00, 0x00, 0x00, 0x00, 0x0a, 0x00, 0x10, 0x00, 0x0c, 0x00,
//   0x08, 0x00, 0x04, 0x00, 0x0a, 0x00, 0x00, 0x00, 0x0c, 0x00, 0x00, 0x00,
//   0x10, 0x00, 0x00, 0x00, 0x07, 0x00, 0x00, 0x00, 0x01, 0x00, 0x00, 0x00,
//   0x5d, 0x00, 0x00, 0x00, 0x01, 0x00, 0x00, 0x00, 0x5c, 0x00, 0x00, 0x00,
//   0x82, 0xf7, 0xff, 0xff, 0x14, 0x00, 0x00, 0x00, 0x00, 0x00, 0x00, 0x08,
//   0x10, 0x00, 0x00, 0x00, 0x14, 0x00, 0x00, 0x00, 0x06, 0x00, 0x00, 0x00,
//   0x00, 0xc2, 0xff, 0xff, 0x01, 0x00, 0x00, 0x00, 0x5c, 0x00, 0x00, 0x00,
//   0x03, 0x00, 0x00, 0x00, 0x5b, 0x00, 0x00, 0x00, 0x34, 0x00, 0x00, 0x00,
//   0xff, 0xff, 0xff, 0xff, 0x56, 0xf8, 0xff, 0xff, 0x1c, 0x00, 0x00, 0x00,
//   0x00, 0x00, 0x00, 0x08, 0x1c, 0x00, 0x00, 0x00, 0x20, 0x00, 0x00, 0x00,
//   0x06, 0x00, 0x00, 0x00, 0x00, 0x00, 0x06, 0x00, 0x08, 0x00, 0x07, 0x00,
//   0x06, 0x00, 0x00, 0x00, 0x00, 0x00, 0x00, 0x01, 0x01, 0x00, 0x00, 0x00,
//   0x5b, 0x00, 0x00, 0x00, 0x03, 0x00, 0x00, 0x00, 0x5a, 0x00, 0x00, 0x00,
//   0x33, 0x00, 0x00, 0x00, 0xff, 0xff, 0xff, 0xff, 0xf6, 0xf7, 0xff, 0xff,
//   0x14, 0x00, 0x00, 0x00, 0x00, 0x00, 0x00, 0x1b, 0x10, 0x00, 0x00, 0x00,
//   0x14, 0x00, 0x00, 0x00, 0x05, 0x00, 0x00, 0x00, 0x74, 0xc2, 0xff, 0xff,
//   0x01, 0x00, 0x00, 0x00, 0x5a, 0x00, 0x00, 0x00, 0x02, 0x00, 0x00, 0x00,
//   0x59, 0x00, 0x00, 0x00, 0x2d, 0x00, 0x00, 0x00, 0x6e, 0xf7, 0xff, 0xff,
//   0x1c, 0x00, 0x00, 0x00, 0x00, 0x00, 0x00, 0x01, 0x28, 0x00, 0x00, 0x00,
//   0x2c, 0x00, 0x00, 0x00, 0x0c, 0x00, 0x14, 0x00, 0x13, 0x00, 0x0c, 0x00,
//   0x08, 0x00, 0x07, 0x00, 0x0c, 0x00, 0x00, 0x00, 0x00, 0x00, 0x00, 0x01,
//   0x01, 0x00, 0x00, 0x00, 0x01, 0x00, 0x00, 0x00, 0x00, 0x00, 0x00, 0x01,
//   0x01, 0x00, 0x00, 0x00, 0x59, 0x00, 0x00, 0x00, 0x03, 0x00, 0x00, 0x00,
//   0x58, 0x00, 0x00, 0x00, 0x2c, 0x00, 0x00, 0x00, 0x12, 0x00, 0x00, 0x00,
//   0x72, 0xf8, 0xff, 0xff, 0x14, 0x00, 0x00, 0x00, 0x00, 0x00, 0x00, 0x0b,
//   0x10, 0x00, 0x00, 0x00, 0x14, 0x00, 0x00, 0x00, 0x01, 0x00, 0x00, 0x00,
//   0xf0, 0xc2, 0xff, 0xff, 0x01, 0x00, 0x00, 0x00, 0x58, 0x00, 0x00, 0x00,
//   0x02, 0x00, 0x00, 0x00, 0x57, 0x00, 0x00, 0x00, 0x4e, 0x00, 0x00, 0x00,
//   0xa2, 0xf8, 0xff, 0xff, 0x14, 0x00, 0x00, 0x00, 0x00, 0x00, 0x00, 0x0a,
//   0x14, 0x00, 0x00, 0x00, 0x18, 0x00, 0x00, 0x00, 0x04, 0x00, 0x00, 0x00,
//   0xc6, 0xf9, 0xff, 0xff, 0x03, 0x00, 0x00, 0x00, 0x01, 0x00, 0x00, 0x00,
//   0x57, 0x00, 0x00, 0x00, 0x02, 0x00, 0x00, 0x00, 0x54, 0x00, 0x00, 0x00,
//   0x56, 0x00, 0x00, 0x00, 0xd6, 0xf8, 0xff, 0xff, 0x14, 0x00, 0x00, 0x00,
//   0x00, 0x00, 0x00, 0x20, 0x18, 0x00, 0x00, 0x00, 0x1c, 0x00, 0x00, 0x00,
//   0x03, 0x00, 0x00, 0x00, 0xc0, 0xf9, 0xff, 0xff, 0x07, 0x00, 0x00, 0x00,
//   0x0f, 0x00, 0x00, 0x00, 0x01, 0x00, 0x00, 0x00, 0x56, 0x00, 0x00, 0x00,
//   0x04, 0x00, 0x00, 0x00, 0x55, 0x00, 0x00, 0x00, 0x21, 0x00, 0x00, 0x00,
//   0x2a, 0x00, 0x00, 0x00, 0x23, 0x00, 0x00, 0x00, 0x16, 0xf9, 0xff, 0xff,
//   0x14, 0x00, 0x00, 0x00, 0x00, 0x00, 0x00, 0x02, 0x20, 0x00, 0x00, 0x00,
//   0x24, 0x00, 0x00, 0x00, 0x02, 0x00, 0x00, 0x00, 0xa6, 0xf9, 0xff, 0xff,
//   0x00, 0x00, 0x00, 0x01, 0x01, 0x00, 0x00, 0x00, 0x01, 0x00, 0x00, 0x00,
//   0x01, 0x00, 0x00, 0x00, 0x01, 0x00, 0x00, 0x00, 0x55, 0x00, 0x00, 0x00,
//   0x03, 0x00, 0x00, 0x00, 0x54, 0x00, 0x00, 0x00, 0x1c, 0x00, 0x00, 0x00,
//   0x11, 0x00, 0x00, 0x00, 0xa2, 0xf8, 0xff, 0xff, 0x10, 0x00, 0x00, 0x00,
//   0x00, 0x00, 0x00, 0x01, 0x18, 0x00, 0x00, 0x00, 0x1c, 0x00, 0x00, 0x00,
//   0x94, 0xf8, 0xff, 0xff, 0x00, 0x00, 0x00, 0x01, 0x01, 0x00, 0x00, 0x00,
//   0x01, 0x00, 0x00, 0x00, 0x01, 0x00, 0x00, 0x00, 0x54, 0x00, 0x00, 0x00,
//   0x03, 0x00, 0x00, 0x00, 0x53, 0x00, 0x00, 0x00, 0x2b, 0x00, 0x00, 0x00,
//   0x10, 0x00, 0x00, 0x00, 0x96, 0xf9, 0xff, 0xff, 0x14, 0x00, 0x00, 0x00,
//   0x00, 0x00, 0x00, 0x02, 0x20, 0x00, 0x00, 0x00, 0x24, 0x00, 0x00, 0x00,
//   0x02, 0x00, 0x00, 0x00, 0x26, 0xfa, 0xff, 0xff, 0x00, 0x00, 0x00, 0x01,
//   0x01, 0x00, 0x00, 0x00, 0x02, 0x00, 0x00, 0x00, 0x02, 0x00, 0x00, 0x00,
//   0x01, 0x00, 0x00, 0x00, 0x53, 0x00, 0x00, 0x00, 0x03, 0x00, 0x00, 0x00,
//   0x52, 0x00, 0x00, 0x00, 0x1b, 0x00, 0x00, 0x00, 0x0f, 0x00, 0x00, 0x00,
//   0xda, 0xf9, 0xff, 0xff, 0x14, 0x00, 0x00, 0x00, 0x00, 0x00, 0x00, 0x0a,
//   0x14, 0x00, 0x00, 0x00, 0x18, 0x00, 0x00, 0x00, 0x04, 0x00, 0x00, 0x00,
//   0xfe, 0xfa, 0xff, 0xff, 0x03, 0x00, 0x00, 0x00, 0x01, 0x00, 0x00, 0x00,
//   0x52, 0x00, 0x00, 0x00, 0x02, 0x00, 0x00, 0x00, 0x4f, 0x00, 0x00, 0x00,
//   0x51, 0x00, 0x00, 0x00, 0x0e, 0xfa, 0xff, 0xff, 0x14, 0x00, 0x00, 0x00,
//   0x00, 0x00, 0x00, 0x20, 0x18, 0x00, 0x00, 0x00, 0x1c, 0x00, 0x00, 0x00,
//   0x03, 0x00, 0x00, 0x00, 0xf8, 0xfa, 0xff, 0xff, 0x07, 0x00, 0x00, 0x00,
//   0x0f, 0x00, 0x00, 0x00, 0x01, 0x00, 0x00, 0x00, 0x51, 0x00, 0x00, 0x00,
//   0x04, 0x00, 0x00, 0x00, 0x50, 0x00, 0x00, 0x00, 0x21, 0x00, 0x00, 0x00,
//   0x2a, 0x00, 0x00, 0x00, 0x23, 0x00, 0x00, 0x00, 0x4e, 0xfa, 0xff, 0xff,
//   0x14, 0x00, 0x00, 0x00, 0x00, 0x00, 0x00, 0x02, 0x20, 0x00, 0x00, 0x00,
//   0x24, 0x00, 0x00, 0x00, 0x02, 0x00, 0x00, 0x00, 0xde, 0xfa, 0xff, 0xff,
//   0x00, 0x00, 0x00, 0x01, 0x01, 0x00, 0x00, 0x00, 0x01, 0x00, 0x00, 0x00,
//   0x01, 0x00, 0x00, 0x00, 0x01, 0x00, 0x00, 0x00, 0x50, 0x00, 0x00, 0x00,
//   0x03, 0x00, 0x00, 0x00, 0x4f, 0x00, 0x00, 0x00, 0x1a, 0x00, 0x00, 0x00,
//   0x0e, 0x00, 0x00, 0x00, 0xda, 0xf9, 0xff, 0xff, 0x10, 0x00, 0x00, 0x00,
//   0x00, 0x00, 0x00, 0x01, 0x18, 0x00, 0x00, 0x00, 0x1c, 0x00, 0x00, 0x00,
//   0xcc, 0xf9, 0xff, 0xff, 0x00, 0x00, 0x00, 0x01, 0x01, 0x00, 0x00, 0x00,
//   0x01, 0x00, 0x00, 0x00, 0x01, 0x00, 0x00, 0x00, 0x4f, 0x00, 0x00, 0x00,
//   0x03, 0x00, 0x00, 0x00, 0x4d, 0x00, 0x00, 0x00, 0x29, 0x00, 0x00, 0x00,
//   0x0d, 0x00, 0x00, 0x00, 0x16, 0xfa, 0xff, 0xff, 0x10, 0x00, 0x00, 0x00,
//   0x00, 0x00, 0x00, 0x01, 0x14, 0x00, 0x00, 0x00, 0x18, 0x00, 0x00, 0x00,
//   0x6e, 0xfd, 0xff, 0xff, 0x02, 0x00, 0x00, 0x00, 0x02, 0x00, 0x00, 0x00,
//   0x01, 0x00, 0x00, 0x00, 0x4e, 0x00, 0x00, 0x00, 0x03, 0x00, 0x00, 0x00,
//   0x4d, 0x00, 0x00, 0x00, 0x28, 0x00, 0x00, 0x00, 0x19, 0x00, 0x00, 0x00,
//   0x06, 0xfb, 0xff, 0xff, 0x14, 0x00, 0x00, 0x00, 0x00, 0x00, 0x00, 0x0b,
//   0x10, 0x00, 0x00, 0x00, 0x14, 0x00, 0x00, 0x00, 0x01, 0x00, 0x00, 0x00,
//   0x84, 0xc5, 0xff, 0xff, 0x01, 0x00, 0x00, 0x00, 0x4d, 0x00, 0x00, 0x00,
//   0x02, 0x00, 0x00, 0x00, 0x4c, 0x00, 0x00, 0x00, 0x44, 0x00, 0x00, 0x00,
//   0x36, 0xfb, 0xff, 0xff, 0x14, 0x00, 0x00, 0x00, 0x00, 0x00, 0x00, 0x0a,
//   0x14, 0x00, 0x00, 0x00, 0x18, 0x00, 0x00, 0x00, 0x04, 0x00, 0x00, 0x00,
//   0x5a, 0xfc, 0xff, 0xff, 0x03, 0x00, 0x00, 0x00, 0x01, 0x00, 0x00, 0x00,
//   0x4c, 0x00, 0x00, 0x00, 0x02, 0x00, 0x00, 0x00, 0x49, 0x00, 0x00, 0x00,
//   0x4b, 0x00, 0x00, 0x00, 0x6a, 0xfb, 0xff, 0xff, 0x14, 0x00, 0x00, 0x00,
//   0x00, 0x00, 0x00, 0x20, 0x18, 0x00, 0x00, 0x00, 0x1c, 0x00, 0x00, 0x00,
//   0x03, 0x00, 0x00, 0x00, 0x54, 0xfc, 0xff, 0xff, 0x07, 0x00, 0x00, 0x00,
//   0x0f, 0x00, 0x00, 0x00, 0x01, 0x00, 0x00, 0x00, 0x4b, 0x00, 0x00, 0x00,
//   0x04, 0x00, 0x00, 0x00, 0x4a, 0x00, 0x00, 0x00, 0x21, 0x00, 0x00, 0x00,
//   0x22, 0x00, 0x00, 0x00, 0x23, 0x00, 0x00, 0x00, 0xaa, 0xfb, 0xff, 0xff,
//   0x14, 0x00, 0x00, 0x00, 0x00, 0x00, 0x00, 0x02, 0x20, 0x00, 0x00, 0x00,
//   0x24, 0x00, 0x00, 0x00, 0x02, 0x00, 0x00, 0x00, 0x3a, 0xfc, 0xff, 0xff,
//   0x00, 0x00, 0x00, 0x01, 0x01, 0x00, 0x00, 0x00, 0x01, 0x00, 0x00, 0x00,
//   0x01, 0x00, 0x00, 0x00, 0x01, 0x00, 0x00, 0x00, 0x4a, 0x00, 0x00, 0x00,
//   0x03, 0x00, 0x00, 0x00, 0x49, 0x00, 0x00, 0x00, 0x18, 0x00, 0x00, 0x00,
//   0x0c, 0x00, 0x00, 0x00, 0x36, 0xfb, 0xff, 0xff, 0x10, 0x00, 0x00, 0x00,
//   0x00, 0x00, 0x00, 0x01, 0x18, 0x00, 0x00, 0x00, 0x1c, 0x00, 0x00, 0x00,
//   0x28, 0xfb, 0xff, 0xff, 0x00, 0x00, 0x00, 0x01, 0x01, 0x00, 0x00, 0x00,
//   0x01, 0x00, 0x00, 0x00, 0x01, 0x00, 0x00, 0x00, 0x49, 0x00, 0x00, 0x00,
//   0x03, 0x00, 0x00, 0x00, 0x48, 0x00, 0x00, 0x00, 0x27, 0x00, 0x00, 0x00,
//   0x0b, 0x00, 0x00, 0x00, 0x2a, 0xfc, 0xff, 0xff, 0x14, 0x00, 0x00, 0x00,
//   0x00, 0x00, 0x00, 0x0a, 0x14, 0x00, 0x00, 0x00, 0x18, 0x00, 0x00, 0x00,
//   0x04, 0x00, 0x00, 0x00, 0x4e, 0xfd, 0xff, 0xff, 0x03, 0x00, 0x00, 0x00,
//   0x01, 0x00, 0x00, 0x00, 0x48, 0x00, 0x00, 0x00, 0x02, 0x00, 0x00, 0x00,
//   0x45, 0x00, 0x00, 0x00, 0x47, 0x00, 0x00, 0x00, 0x5e, 0xfc, 0xff, 0xff,
//   0x14, 0x00, 0x00, 0x00, 0x00, 0x00, 0x00, 0x20, 0x18, 0x00, 0x00, 0x00,
//   0x1c, 0x00, 0x00, 0x00, 0x03, 0x00, 0x00, 0x00, 0x48, 0xfd, 0xff, 0xff,
//   0x07, 0x00, 0x00, 0x00, 0x0f, 0x00, 0x00, 0x00, 0x01, 0x00, 0x00, 0x00,
//   0x47, 0x00, 0x00, 0x00, 0x04, 0x00, 0x00, 0x00, 0x46, 0x00, 0x00, 0x00,
//   0x21, 0x00, 0x00, 0x00, 0x22, 0x00, 0x00, 0x00, 0x23, 0x00, 0x00, 0x00,
//   0x9e, 0xfc, 0xff, 0xff, 0x14, 0x00, 0x00, 0x00, 0x00, 0x00, 0x00, 0x02,
//   0x20, 0x00, 0x00, 0x00, 0x24, 0x00, 0x00, 0x00, 0x02, 0x00, 0x00, 0x00,
//   0x2e, 0xfd, 0xff, 0xff, 0x00, 0x00, 0x00, 0x01, 0x01, 0x00, 0x00, 0x00,
//   0x01, 0x00, 0x00, 0x00, 0x01, 0x00, 0x00, 0x00, 0x01, 0x00, 0x00, 0x00,
//   0x46, 0x00, 0x00, 0x00, 0x03, 0x00, 0x00, 0x00, 0x45, 0x00, 0x00, 0x00,
//   0x17, 0x00, 0x00, 0x00, 0x0a, 0x00, 0x00, 0x00, 0x2a, 0xfc, 0xff, 0xff,
//   0x10, 0x00, 0x00, 0x00, 0x00, 0x00, 0x00, 0x01, 0x18, 0x00, 0x00, 0x00,
//   0x1c, 0x00, 0x00, 0x00, 0x1c, 0xfc, 0xff, 0xff, 0x00, 0x00, 0x00, 0x01,
//   0x01, 0x00, 0x00, 0x00, 0x01, 0x00, 0x00, 0x00, 0x01, 0x00, 0x00, 0x00,
//   0x45, 0x00, 0x00, 0x00, 0x03, 0x00, 0x00, 0x00, 0x44, 0x00, 0x00, 0x00,
//   0x26, 0x00, 0x00, 0x00, 0x09, 0x00, 0x00, 0x00, 0x1e, 0xfd, 0xff, 0xff,
//   0x14, 0x00, 0x00, 0x00, 0x00, 0x00, 0x00, 0x0b, 0x10, 0x00, 0x00, 0x00,
//   0x14, 0x00, 0x00, 0x00, 0x01, 0x00, 0x00, 0x00, 0x9c, 0xc7, 0xff, 0xff,
//   0x01, 0x00, 0x00, 0x00, 0x44, 0x00, 0x00, 0x00, 0x02, 0x00, 0x00, 0x00,
//   0x42, 0x00, 0x00, 0x00, 0x43, 0x00, 0x00, 0x00, 0x00, 0x00, 0x0e, 0x00,
//   0x16, 0x00, 0x00, 0x00, 0x10, 0x00, 0x0c, 0x00, 0x0b, 0x00, 0x04, 0x00,
//   0x0e, 0x00, 0x00, 0x00, 0x1c, 0x00, 0x00, 0x00, 0x00, 0x00, 0x00, 0x01,
//   0x20, 0x00, 0x00, 0x00, 0x24, 0x00, 0x00, 0x00, 0x00, 0x00, 0x0a, 0x00,
//   0x0c, 0x00, 0x00, 0x00, 0x08, 0x00, 0x04, 0x00, 0x0a, 0x00, 0x00, 0x00,
//   0x02, 0x00, 0x00, 0x00, 0x02, 0x00, 0x00, 0x00, 0x01, 0x00, 0x00, 0x00,
//   0x43, 0x00, 0x00, 0x00, 0x03, 0x00, 0x00, 0x00, 0x39, 0x00, 0x00, 0x00,
//   0x25, 0x00, 0x00, 0x00, 0x16, 0x00, 0x00, 0x00, 0xa2, 0xfd, 0xff, 0xff,
//   0x14, 0x00, 0x00, 0x00, 0x00, 0x00, 0x00, 0x0a, 0x14, 0x00, 0x00, 0x00,
//   0x18, 0x00, 0x00, 0x00, 0x04, 0x00, 0x00, 0x00, 0xc6, 0xfe, 0xff, 0xff,
//   0x03, 0x00, 0x00, 0x00, 0x01, 0x00, 0x00, 0x00, 0x42, 0x00, 0x00, 0x00,
//   0x02, 0x00, 0x00, 0x00, 0x3f, 0x00, 0x00, 0x00, 0x41, 0x00, 0x00, 0x00,
//   0xd6, 0xfd, 0xff, 0xff, 0x14, 0x00, 0x00, 0x00, 0x00, 0x00, 0x00, 0x20,
//   0x18, 0x00, 0x00, 0x00, 0x1c, 0x00, 0x00, 0x00, 0x03, 0x00, 0x00, 0x00,
//   0xc0, 0xfe, 0xff, 0xff, 0x07, 0x00, 0x00, 0x00, 0x0f, 0x00, 0x00, 0x00,
//   0x01, 0x00, 0x00, 0x00, 0x41, 0x00, 0x00, 0x00, 0x04, 0x00, 0x00, 0x00,
//   0x40, 0x00, 0x00, 0x00, 0x21, 0x00, 0x00, 0x00, 0x22, 0x00, 0x00, 0x00,
//   0x23, 0x00, 0x00, 0x00, 0x16, 0xfe, 0xff, 0xff, 0x14, 0x00, 0x00, 0x00,
//   0x00, 0x00, 0x00, 0x02, 0x20, 0x00, 0x00, 0x00, 0x24, 0x00, 0x00, 0x00,
//   0x02, 0x00, 0x00, 0x00, 0xa6, 0xfe, 0xff, 0xff, 0x00, 0x00, 0x00, 0x01,
//   0x01, 0x00, 0x00, 0x00, 0x01, 0x00, 0x00, 0x00, 0x01, 0x00, 0x00, 0x00,
//   0x01, 0x00, 0x00, 0x00, 0x40, 0x00, 0x00, 0x00, 0x03, 0x00, 0x00, 0x00,
//   0x3f, 0x00, 0x00, 0x00, 0x15, 0x00, 0x00, 0x00, 0x08, 0x00, 0x00, 0x00,
//   0xa2, 0xfd, 0xff, 0xff, 0x10, 0x00, 0x00, 0x00, 0x00, 0x00, 0x00, 0x01,
//   0x18, 0x00, 0x00, 0x00, 0x1c, 0x00, 0x00, 0x00, 0x94, 0xfd, 0xff, 0xff,
//   0x00, 0x00, 0x00, 0x01, 0x01, 0x00, 0x00, 0x00, 0x01, 0x00, 0x00, 0x00,
//   0x01, 0x00, 0x00, 0x00, 0x3f, 0x00, 0x00, 0x00, 0x03, 0x00, 0x00, 0x00,
//   0x3e, 0x00, 0x00, 0x00, 0x24, 0x00, 0x00, 0x00, 0x07, 0x00, 0x00, 0x00,
//   0x96, 0xfe, 0xff, 0xff, 0x14, 0x00, 0x00, 0x00, 0x00, 0x00, 0x00, 0x02,
//   0x20, 0x00, 0x00, 0x00, 0x24, 0x00, 0x00, 0x00, 0x02, 0x00, 0x00, 0x00,
//   0x26, 0xff, 0xff, 0xff, 0x00, 0x00, 0x00, 0x01, 0x01, 0x00, 0x00, 0x00,
//   0x02, 0x00, 0x00, 0x00, 0x02, 0x00, 0x00, 0x00, 0x01, 0x00, 0x00, 0x00,
//   0x3e, 0x00, 0x00, 0x00, 0x03, 0x00, 0x00, 0x00, 0x3d, 0x00, 0x00, 0x00,
//   0x14, 0x00, 0x00, 0x00, 0x06, 0x00, 0x00, 0x00, 0x7a, 0xff, 0xff, 0xff,
//   0x1c, 0x00, 0x00, 0x00, 0x00, 0x00, 0x00, 0x0a, 0x1c, 0x00, 0x00, 0x00,
//   0x20, 0x00, 0x00, 0x00, 0x04, 0x00, 0x00, 0x00, 0x00, 0x00, 0x06, 0x00,
//   0x08, 0x00, 0x04, 0x00, 0x06, 0x00, 0x00, 0x00, 0x03, 0x00, 0x00, 0x00,
//   0x01, 0x00, 0x00, 0x00, 0x3d, 0x00, 0x00, 0x00, 0x02, 0x00, 0x00, 0x00,
//   0x3a, 0x00, 0x00, 0x00, 0x3c, 0x00, 0x00, 0x00, 0x16, 0xff, 0xff, 0xff,
//   0x1c, 0x00, 0x00, 0x00, 0x00, 0x00, 0x00, 0x20, 0x20, 0x00, 0x00, 0x00,
//   0x24, 0x00, 0x00, 0x00, 0x03, 0x00, 0x00, 0x00, 0x08, 0x00, 0x0c, 0x00,
//   0x08, 0x00, 0x04, 0x00, 0x08, 0x00, 0x00, 0x00, 0x07, 0x00, 0x00, 0x00,
//   0x0f, 0x00, 0x00, 0x00, 0x01, 0x00, 0x00, 0x00, 0x3c, 0x00, 0x00, 0x00,
//   0x04, 0x00, 0x00, 0x00, 0x3b, 0x00, 0x00, 0x00, 0x21, 0x00, 0x00, 0x00,
//   0x22, 0x00, 0x00, 0x00, 0x23, 0x00, 0x00, 0x00, 0x00, 0x00, 0x0e, 0x00,
//   0x1a, 0x00, 0x14, 0x00, 0x10, 0x00, 0x0c, 0x00, 0x0b, 0x00, 0x04, 0x00,
//   0x0e, 0x00, 0x00, 0x00, 0x24, 0x00, 0x00, 0x00, 0x00, 0x00, 0x00, 0x02,
//   0x30, 0x00, 0x00, 0x00, 0x34, 0x00, 0x00, 0x00, 0x02, 0x00, 0x00, 0x00,
//   0x00, 0x00, 0x0e, 0x00, 0x14, 0x00, 0x00, 0x00, 0x10, 0x00, 0x0c, 0x00,
//   0x08, 0x00, 0x07, 0x00, 0x0e, 0x00, 0x00, 0x00, 0x00, 0x00, 0x00, 0x01,
//   0x01, 0x00, 0x00, 0x00, 0x01, 0x00, 0x00, 0x00, 0x01, 0x00, 0x00, 0x00,
//   0x01, 0x00, 0x00, 0x00, 0x3b, 0x00, 0x00, 0x00, 0x03, 0x00, 0x00, 0x00,
//   0x3a, 0x00, 0x00, 0x00, 0x13, 0x00, 0x00, 0x00, 0x05, 0x00, 0x00, 0x00,
//   0x0a, 0xff, 0xff, 0xff, 0x10, 0x00, 0x00, 0x00, 0x00, 0x00, 0x00, 0x01,
//   0x18, 0x00, 0x00, 0x00, 0x1c, 0x00, 0x00, 0x00, 0xfc, 0xfe, 0xff, 0xff,
//   0x00, 0x00, 0x00, 0x01, 0x01, 0x00, 0x00, 0x00, 0x01, 0x00, 0x00, 0x00,
//   0x01, 0x00, 0x00, 0x00, 0x3a, 0x00, 0x00, 0x00, 0x03, 0x00, 0x00, 0x00,
//   0x39, 0x00, 0x00, 0x00, 0x20, 0x00, 0x00, 0x00, 0x04, 0x00, 0x00, 0x00,
//   0x00, 0x00, 0x0e, 0x00, 0x18, 0x00, 0x14, 0x00, 0x10, 0x00, 0x0c, 0x00,
//   0x0b, 0x00, 0x04, 0x00, 0x0e, 0x00, 0x00, 0x00, 0x14, 0x00, 0x00, 0x00,
//   0x00, 0x00, 0x00, 0x0b, 0x10, 0x00, 0x00, 0x00, 0x14, 0x00, 0x00, 0x00,
//   0x01, 0x00, 0x00, 0x00, 0x8c, 0xca, 0xff, 0xff, 0x01, 0x00, 0x00, 0x00,
//   0x39, 0x00, 0x00, 0x00, 0x02, 0x00, 0x00, 0x00, 0x38, 0x00, 0x00, 0x00,
//   0x36, 0x00, 0x00, 0x00, 0x86, 0xff, 0xff, 0xff, 0x10, 0x00, 0x00, 0x00,
//   0x00, 0x00, 0x00, 0x01, 0x18, 0x00, 0x00, 0x00, 0x1c, 0x00, 0x00, 0x00,
//   0x78, 0xff, 0xff, 0xff, 0x00, 0x00, 0x00, 0x01, 0x01, 0x00, 0x00, 0x00,
//   0x01, 0x00, 0x00, 0x00, 0x01, 0x00, 0x00, 0x00, 0x38, 0x00, 0x00, 0x00,
//   0x03, 0x00, 0x00, 0x00, 0x37, 0x00, 0x00, 0x00, 0x1f, 0x00, 0x00, 0x00,
//   0x03, 0x00, 0x00, 0x00, 0xc2, 0xff, 0xff, 0xff, 0x10, 0x00, 0x00, 0x00,
//   0x00, 0x00, 0x00, 0x01, 0x18, 0x00, 0x00, 0x00, 0x1c, 0x00, 0x00, 0x00,
//   0xb4, 0xff, 0xff, 0xff, 0x00, 0x00, 0x00, 0x01, 0x01, 0x00, 0x00, 0x00,
//   0x01, 0x00, 0x00, 0x00, 0x01, 0x00, 0x00, 0x00, 0x37, 0x00, 0x00, 0x00,
//   0x03, 0x00, 0x00, 0x00, 0x36, 0x00, 0x00, 0x00, 0x1e, 0x00, 0x00, 0x00,
//   0x02, 0x00, 0x00, 0x00, 0x00, 0x00, 0x0e, 0x00, 0x14, 0x00, 0x00, 0x00,
//   0x10, 0x00, 0x0c, 0x00, 0x0b, 0x00, 0x04, 0x00, 0x0e, 0x00, 0x00, 0x00,
//   0x1c, 0x00, 0x00, 0x00, 0x00, 0x00, 0x00, 0x01, 0x24, 0x00, 0x00, 0x00,
//   0x28, 0x00, 0x00, 0x00, 0x0c, 0x00, 0x10, 0x00, 0x00, 0x00, 0x0c, 0x00,
//   0x08, 0x00, 0x07, 0x00, 0x0c, 0x00, 0x00, 0x00, 0x00, 0x00, 0x00, 0x01,
//   0x02, 0x00, 0x00, 0x00, 0x02, 0x00, 0x00, 0x00, 0x01, 0x00, 0x00, 0x00,
//   0x36, 0x00, 0x00, 0x00, 0x03, 0x00, 0x00, 0x00, 0x00, 0x00, 0x00, 0x00,
//   0x1d, 0x00, 0x00, 0x00, 0x01, 0x00, 0x00, 0x00, 0x01, 0x00, 0x00, 0x00,
//   0x65, 0x00, 0x00, 0x00, 0x01, 0x00, 0x00, 0x00, 0x00, 0x00, 0x00, 0x00,
//   0x66, 0x00, 0x00, 0x00, 0x54, 0x33, 0x00, 0x00, 0xdc, 0x32, 0x00, 0x00,
//   0x64, 0x32, 0x00, 0x00, 0x04, 0x32, 0x00, 0x00, 0xa4, 0x31, 0x00, 0x00,
//   0x44, 0x31, 0x00, 0x00, 0xe4, 0x30, 0x00, 0x00, 0x84, 0x30, 0x00, 0x00,
//   0x24, 0x30, 0x00, 0x00, 0xc4, 0x2f, 0x00, 0x00, 0x60, 0x2f, 0x00, 0x00,
//   0xfc, 0x2e, 0x00, 0x00, 0x98, 0x2e, 0x00, 0x00, 0x34, 0x2e, 0x00, 0x00,
//   0xd0, 0x2d, 0x00, 0x00, 0x6c, 0x2d, 0x00, 0x00, 0x08, 0x2d, 0x00, 0x00,
//   0xa4, 0x2c, 0x00, 0x00, 0x40, 0x2c, 0x00, 0x00, 0x80, 0x2b, 0x00, 0x00,
//   0xc0, 0x2a, 0x00, 0x00, 0x00, 0x2a, 0x00, 0x00, 0xa0, 0x29, 0x00, 0x00,
//   0xdc, 0x28, 0x00, 0x00, 0x44, 0x28, 0x00, 0x00, 0xe0, 0x27, 0x00, 0x00,
//   0x1c, 0x27, 0x00, 0x00, 0x64, 0x26, 0x00, 0x00, 0xcc, 0x25, 0x00, 0x00,
//   0x78, 0x25, 0x00, 0x00, 0x20, 0x25, 0x00, 0x00, 0xc8, 0x24, 0x00, 0x00,
//   0x70, 0x24, 0x00, 0x00, 0x1c, 0x24, 0x00, 0x00, 0xb0, 0x23, 0x00, 0x00,
//   0x58, 0x23, 0x00, 0x00, 0x00, 0x23, 0x00, 0x00, 0xa8, 0x22, 0x00, 0x00,
//   0x50, 0x22, 0x00, 0x00, 0xf8, 0x21, 0x00, 0x00, 0xa0, 0x21, 0x00, 0x00,
//   0x48, 0x21, 0x00, 0x00, 0xf0, 0x20, 0x00, 0x00, 0x98, 0x20, 0x00, 0x00,
//   0x40, 0x20, 0x00, 0x00, 0xd0, 0x1f, 0x00, 0x00, 0x7c, 0x1f, 0x00, 0x00,
//   0x28, 0x1f, 0x00, 0x00, 0xcc, 0x1e, 0x00, 0x00, 0x70, 0x1e, 0x00, 0x00,
//   0x18, 0x1e, 0x00, 0x00, 0xcc, 0x1d, 0x00, 0x00, 0x80, 0x1d, 0x00, 0x00,
//   0x34, 0x1d, 0x00, 0x00, 0x60, 0x1c, 0x00, 0x00, 0x88, 0x1b, 0x00, 0x00,
//   0xcc, 0x1a, 0x00, 0x00, 0x64, 0x1a, 0x00, 0x00, 0x7c, 0x19, 0x00, 0x00,
//   0x8c, 0x18, 0x00, 0x00, 0x18, 0x18, 0x00, 0x00, 0xa8, 0x17, 0x00, 0x00,
//   0xb4, 0x16, 0x00, 0x00, 0xcc, 0x15, 0x00, 0x00, 0xd8, 0x14, 0x00, 0x00,
//   0x64, 0x14, 0x00, 0x00, 0xf0, 0x13, 0x00, 0x00, 0x24, 0x13, 0x00, 0x00,
//   0xbc, 0x12, 0x00, 0x00, 0xd4, 0x11, 0x00, 0x00, 0xe0, 0x10, 0x00, 0x00,
//   0x6c, 0x10, 0x00, 0x00, 0xf8, 0x0f, 0x00, 0x00, 0x10, 0x0f, 0x00, 0x00,
//   0x44, 0x0e, 0x00, 0x00, 0xcc, 0x0d, 0x00, 0x00, 0x58, 0x0d, 0x00, 0x00,
//   0xf0, 0x0c, 0x00, 0x00, 0x2c, 0x0c, 0x00, 0x00, 0x44, 0x0b, 0x00, 0x00,
//   0x50, 0x0a, 0x00, 0x00, 0xdc, 0x09, 0x00, 0x00, 0x68, 0x09, 0x00, 0x00,
//   0x80, 0x08, 0x00, 0x00, 0x98, 0x07, 0x00, 0x00, 0xcc, 0x06, 0x00, 0x00,
//   0x54, 0x06, 0x00, 0x00, 0xe0, 0x05, 0x00, 0x00, 0x78, 0x05, 0x00, 0x00,
//   0xb8, 0x04, 0x00, 0x00, 0x4c, 0x04, 0x00, 0x00, 0xd8, 0x03, 0x00, 0x00,
//   0x78, 0x03, 0x00, 0x00, 0x18, 0x03, 0x00, 0x00, 0xcc, 0x02, 0x00, 0x00,
//   0x7c, 0x02, 0x00, 0x00, 0x28, 0x02, 0x00, 0x00, 0xb8, 0x01, 0x00, 0x00,
//   0x4c, 0x01, 0x00, 0x00, 0xdc, 0x00, 0x00, 0x00, 0x60, 0x00, 0x00, 0x00,
//   0x04, 0x00, 0x00, 0x00, 0x5a, 0xce, 0xff, 0xff, 0x00, 0x00, 0x00, 0x01,
//   0x14, 0x00, 0x00, 0x00, 0x1c, 0x00, 0x00, 0x00, 0x1c, 0x00, 0x00, 0x00,
//   0x66, 0x00, 0x00, 0x00, 0x34, 0x00, 0x00, 0x00, 0x02, 0x00, 0x00, 0x00,
//   0xff, 0xff, 0xff, 0xff, 0x03, 0x00, 0x00, 0x00, 0x48, 0xcd, 0xff, 0xff,
//   0x19, 0x00, 0x00, 0x00, 0x53, 0x74, 0x61, 0x74, 0x65, 0x66, 0x75, 0x6c,
//   0x50, 0x61, 0x72, 0x74, 0x69, 0x74, 0x69, 0x6f, 0x6e, 0x65, 0x64, 0x43,
//   0x61, 0x6c, 0x6c, 0x3a, 0x30, 0x00, 0x00, 0x00, 0x02, 0x00, 0x00, 0x00,
//   0x01, 0x00, 0x00, 0x00, 0x03, 0x00, 0x00, 0x00, 0xb2, 0xce, 0xff, 0xff,
//   0x00, 0x00, 0x00, 0x01, 0x14, 0x00, 0x00, 0x00, 0x1c, 0x00, 0x00, 0x00,
//   0x1c, 0x00, 0x00, 0x00, 0x65, 0x00, 0x00, 0x00, 0x54, 0x00, 0x00, 0x00,
//   0x02, 0x00, 0x00, 0x00, 0xff, 0xff, 0xff, 0xff, 0x03, 0x00, 0x00, 0x00,
//   0xa0, 0xcd, 0xff, 0xff, 0x38, 0x00, 0x00, 0x00, 0x47, 0x68, 0x6f, 0x73,
//   0x74, 0x54, 0x69, 0x6e, 0x79, 0x5f, 0x76, 0x34, 0x2f, 0x64, 0x65, 0x6e,
//   0x73, 0x65, 0x5f, 0x32, 0x2f, 0x4d, 0x61, 0x74, 0x4d, 0x75, 0x6c, 0x3b,
//   0x47, 0x68, 0x6f, 0x73, 0x74, 0x54, 0x69, 0x6e, 0x79, 0x5f, 0x76, 0x34,
//   0x2f, 0x64, 0x65, 0x6e, 0x73, 0x65, 0x5f, 0x32, 0x2f, 0x42, 0x69, 0x61,
//   0x73, 0x41, 0x64, 0x64, 0x00, 0x00, 0x00, 0x00, 0x02, 0x00, 0x00, 0x00,
//   0x01, 0x00, 0x00, 0x00, 0x03, 0x00, 0x00, 0x00, 0x2a, 0xcf, 0xff, 0xff,
//   0x00, 0x00, 0x00, 0x01, 0x14, 0x00, 0x00, 0x00, 0x1c, 0x00, 0x00, 0x00,
//   0x1c, 0x00, 0x00, 0x00, 0x64, 0x00, 0x00, 0x00, 0x48, 0x00, 0x00, 0x00,
//   0x02, 0x00, 0x00, 0x00, 0xff, 0xff, 0xff, 0xff, 0x0e, 0x00, 0x00, 0x00,
//   0x18, 0xce, 0xff, 0xff, 0x2c, 0x00, 0x00, 0x00, 0x47, 0x68, 0x6f, 0x73,
//   0x74, 0x54, 0x69, 0x6e, 0x79, 0x5f, 0x76, 0x34, 0x2f, 0x67, 0x6c, 0x6f,
//   0x62, 0x61, 0x6c, 0x5f, 0x61, 0x76, 0x65, 0x72, 0x61, 0x67, 0x65, 0x5f,
//   0x70, 0x6f, 0x6f, 0x6c, 0x69, 0x6e, 0x67, 0x32, 0x64, 0x5f, 0x31, 0x2f,
//   0x4d, 0x65, 0x61, 0x6e, 0x00, 0x00, 0x00, 0x00, 0x02, 0x00, 0x00, 0x00,
//   0x01, 0x00, 0x00, 0x00, 0x0e, 0x00, 0x00, 0x00, 0x96, 0xcf, 0xff, 0xff,
//   0x00, 0x00, 0x00, 0x01, 0x14, 0x00, 0x00, 0x00, 0x24, 0x00, 0x00, 0x00,
//   0x24, 0x00, 0x00, 0x00, 0x63, 0x00, 0x00, 0x00, 0x3c, 0x00, 0x00, 0x00,
//   0x04, 0x00, 0x00, 0x00, 0xff, 0xff, 0xff, 0xff, 0x05, 0x00, 0x00, 0x00,
//   0x05, 0x00, 0x00, 0x00, 0x0e, 0x00, 0x00, 0x00, 0x8c, 0xce, 0xff, 0xff,
//   0x19, 0x00, 0x00, 0x00, 0x47, 0x68, 0x6f, 0x73, 0x74, 0x54, 0x69, 0x6e,
//   0x79, 0x5f, 0x76, 0x34, 0x2f, 0x6d, 0x75, 0x6c, 0x74, 0x69, 0x70, 0x6c,
//   0x79, 0x2f, 0x6d, 0x75, 0x6c, 0x00, 0x00, 0x00, 0x04, 0x00, 0x00, 0x00,
//   0x01, 0x00, 0x00, 0x00, 0x05, 0x00, 0x00, 0x00, 0x05, 0x00, 0x00, 0x00,
//   0x0e, 0x00, 0x00, 0x00, 0xfe, 0xcf, 0xff, 0xff, 0x00, 0x00, 0x00, 0x01,
//   0x14, 0x00, 0x00, 0x00, 0x24, 0x00, 0x00, 0x00, 0x24, 0x00, 0x00, 0x00,
//   0x62, 0x00, 0x00, 0x00, 0x40, 0x00, 0x00, 0x00, 0x04, 0x00, 0x00, 0x00,
//   0xff, 0xff, 0xff, 0xff, 0x01, 0x00, 0x00, 0x00, 0x01, 0x00, 0x00, 0x00,
//   0x0e, 0x00, 0x00, 0x00, 0xf4, 0xce, 0xff, 0xff, 0x1c, 0x00, 0x00, 0x00,
//   0x47, 0x68, 0x6f, 0x73, 0x74, 0x54, 0x69, 0x6e, 0x79, 0x5f, 0x76, 0x34,
//   0x2f, 0x72, 0x65, 0x73, 0x68, 0x61, 0x70, 0x65, 0x2f, 0x52, 0x65, 0x73,
//   0x68, 0x61, 0x70, 0x65, 0x00, 0x00, 0x00, 0x00, 0x04, 0x00, 0x00, 0x00,
//   0x01, 0x00, 0x00, 0x00, 0x01, 0x00, 0x00, 0x00, 0x01, 0x00, 0x00, 0x00,
//   0x0e, 0x00, 0x00, 0x00, 0x1e, 0xdf, 0xff, 0xff, 0x00, 0x00, 0x00, 0x01,
//   0x14, 0x00, 0x00, 0x00, 0x14, 0x00, 0x00, 0x00, 0x61, 0x00, 0x00, 0x00,
//   0x00, 0x00, 0x00, 0x02, 0x30, 0x00, 0x00, 0x00, 0x4c, 0xcf, 0xff, 0xff,
//   0x22, 0x00, 0x00, 0x00, 0x47, 0x68, 0x6f, 0x73, 0x74, 0x54, 0x69, 0x6e,
//   0x79, 0x5f, 0x76, 0x34, 0x2f, 0x72, 0x65, 0x73, 0x68, 0x61, 0x70, 0x65,
//   0x2f, 0x52, 0x65, 0x73, 0x68, 0x61, 0x70, 0x65, 0x2f, 0x73, 0x68, 0x61,
//   0x70, 0x65, 0x00, 0x00, 0x01, 0x00, 0x00, 0x00, 0x04, 0x00, 0x00, 0x00,
//   0x6e, 0xdf, 0xff, 0xff, 0x00, 0x00, 0x00, 0x01, 0x14, 0x00, 0x00, 0x00,
//   0x14, 0x00, 0x00, 0x00, 0x60, 0x00, 0x00, 0x00, 0x00, 0x00, 0x00, 0x02,
//   0x30, 0x00, 0x00, 0x00, 0x9c, 0xcf, 0xff, 0xff, 0x22, 0x00, 0x00, 0x00,
//   0x47, 0x68, 0x6f, 0x73, 0x74, 0x54, 0x69, 0x6e, 0x79, 0x5f, 0x76, 0x34,
//   0x2f, 0x72, 0x65, 0x73, 0x68, 0x61, 0x70, 0x65, 0x2f, 0x73, 0x74, 0x72,
//   0x69, 0x64, 0x65, 0x64, 0x5f, 0x73, 0x6c, 0x69, 0x63, 0x65, 0x00, 0x00,
//   0x00, 0x00, 0x00, 0x00, 0xba, 0xdf, 0xff, 0xff, 0x00, 0x00, 0x00, 0x01,
//   0x14, 0x00, 0x00, 0x00, 0x14, 0x00, 0x00, 0x00, 0x5f, 0x00, 0x00, 0x00,
//   0x00, 0x00, 0x00, 0x02, 0x28, 0x00, 0x00, 0x00, 0xe8, 0xcf, 0xff, 0xff,
//   0x1a, 0x00, 0x00, 0x00, 0x47, 0x68, 0x6f, 0x73, 0x74, 0x54, 0x69, 0x6e,
//   0x79, 0x5f, 0x76, 0x34, 0x2f, 0x72, 0x65, 0x73, 0x68, 0x61, 0x70, 0x65,
//   0x2f, 0x53, 0x68, 0x61, 0x70, 0x65, 0x00, 0x00, 0x01, 0x00, 0x00, 0x00,
//   0x02, 0x00, 0x00, 0x00, 0x4e, 0xd1, 0xff, 0xff, 0x00, 0x00, 0x00, 0x01,
//   0x14, 0x00, 0x00, 0x00, 0x1c, 0x00, 0x00, 0x00, 0x1c, 0x00, 0x00, 0x00,
//   0x5e, 0x00, 0x00, 0x00, 0x38, 0x00, 0x00, 0x00, 0x02, 0x00, 0x00, 0x00,
//   0xff, 0xff, 0xff, 0xff, 0x0e, 0x00, 0x00, 0x00, 0x3c, 0xd0, 0xff, 0xff,
//   0x1c, 0x00, 0x00, 0x00, 0x47, 0x68, 0x6f, 0x73, 0x74, 0x54, 0x69, 0x6e,
//   0x79, 0x5f, 0x76, 0x34, 0x2f, 0x64, 0x65, 0x6e, 0x73, 0x65, 0x5f, 0x31,
//   0x2f, 0x53, 0x69, 0x67, 0x6d, 0x6f, 0x69, 0x64, 0x00, 0x00, 0x00, 0x00,
//   0x02, 0x00, 0x00, 0x00, 0x01, 0x00, 0x00, 0x00, 0x0e, 0x00, 0x00, 0x00,
//   0xaa, 0xd1, 0xff, 0xff, 0x00, 0x00, 0x00, 0x01, 0x14, 0x00, 0x00, 0x00,
//   0x1c, 0x00, 0x00, 0x00, 0x1c, 0x00, 0x00, 0x00, 0x5d, 0x00, 0x00, 0x00,
//   0x38, 0x00, 0x00, 0x00, 0x02, 0x00, 0x00, 0x00, 0xff, 0xff, 0xff, 0xff,
//   0x0e, 0x00, 0x00, 0x00, 0x98, 0xd0, 0xff, 0xff, 0x1c, 0x00, 0x00, 0x00,
//   0x47, 0x68, 0x6f, 0x73, 0x74, 0x54, 0x69, 0x6e, 0x79, 0x5f, 0x76, 0x34,
//   0x2f, 0x64, 0x65, 0x6e, 0x73, 0x65, 0x5f, 0x31, 0x2f, 0x4d, 0x61, 0x74,
//   0x4d, 0x75, 0x6c, 0x31, 0x00, 0x00, 0x00, 0x00, 0x02, 0x00, 0x00, 0x00,
//   0x01, 0x00, 0x00, 0x00, 0x0e, 0x00, 0x00, 0x00, 0x06, 0xd2, 0xff, 0xff,
//   0x00, 0x00, 0x00, 0x01, 0x14, 0x00, 0x00, 0x00, 0x1c, 0x00, 0x00, 0x00,
//   0x1c, 0x00, 0x00, 0x00, 0x5c, 0x00, 0x00, 0x00, 0x4c, 0x00, 0x00, 0x00,
//   0x02, 0x00, 0x00, 0x00, 0xff, 0xff, 0xff, 0xff, 0x07, 0x00, 0x00, 0x00,
//   0xf4, 0xd0, 0xff, 0xff, 0x31, 0x00, 0x00, 0x00, 0x47, 0x68, 0x6f, 0x73,
//   0x74, 0x54, 0x69, 0x6e, 0x79, 0x5f, 0x76, 0x34, 0x2f, 0x64, 0x65, 0x6e,
//   0x73, 0x65, 0x2f, 0x4d, 0x61, 0x74, 0x4d, 0x75, 0x6c, 0x3b, 0x47, 0x68,
//   0x6f, 0x73, 0x74, 0x54, 0x69, 0x6e, 0x79, 0x5f, 0x76, 0x34, 0x2f, 0x64,
//   0x65, 0x6e, 0x73, 0x65, 0x2f, 0x52, 0x65, 0x6c, 0x75, 0x00, 0x00, 0x00,
//   0x02, 0x00, 0x00, 0x00, 0x01, 0x00, 0x00, 0x00, 0x07, 0x00, 0x00, 0x00,
//   0x76, 0xd2, 0xff, 0xff, 0x00, 0x00, 0x00, 0x01, 0x14, 0x00, 0x00, 0x00,
//   0x1c, 0x00, 0x00, 0x00, 0x1c, 0x00, 0x00, 0x00, 0x5b, 0x00, 0x00, 0x00,
//   0x44, 0x00, 0x00, 0x00, 0x02, 0x00, 0x00, 0x00, 0xff, 0xff, 0xff, 0xff,
//   0x0e, 0x00, 0x00, 0x00, 0x64, 0xd1, 0xff, 0xff, 0x2a, 0x00, 0x00, 0x00,
//   0x47, 0x68, 0x6f, 0x73, 0x74, 0x54, 0x69, 0x6e, 0x79, 0x5f, 0x76, 0x34,
//   0x2f, 0x67, 0x6c, 0x6f, 0x62, 0x61, 0x6c, 0x5f, 0x61, 0x76, 0x65, 0x72,
//   0x61, 0x67, 0x65, 0x5f, 0x70, 0x6f, 0x6f, 0x6c, 0x69, 0x6e, 0x67, 0x32,
//   0x64, 0x2f, 0x4d, 0x65, 0x61, 0x6e, 0x00, 0x00, 0x02, 0x00, 0x00, 0x00,
//   0x01, 0x00, 0x00, 0x00, 0x0e, 0x00, 0x00, 0x00, 0xde, 0xd2, 0xff, 0xff,
//   0x00, 0x00, 0x00, 0x01, 0x14, 0x00, 0x00, 0x00, 0x24, 0x00, 0x00, 0x00,
//   0x24, 0x00, 0x00, 0x00, 0x5a, 0x00, 0x00, 0x00, 0x90, 0x00, 0x00, 0x00,
//   0x04, 0x00, 0x00, 0x00, 0xff, 0xff, 0xff, 0xff, 0x05, 0x00, 0x00, 0x00,
//   0x05, 0x00, 0x00, 0x00, 0x0e, 0x00, 0x00, 0x00, 0xd4, 0xd1, 0xff, 0xff,
//   0x6d, 0x00, 0x00, 0x00, 0x47, 0x68, 0x6f, 0x73, 0x74, 0x54, 0x69, 0x6e,
//   0x79, 0x5f, 0x76, 0x34, 0x2f, 0x72, 0x65, 0x5f, 0x6c, 0x75, 0x5f, 0x31,
//   0x37, 0x2f, 0x52, 0x65, 0x6c, 0x75, 0x3b, 0x47, 0x68, 0x6f, 0x73, 0x74,
//   0x54, 0x69, 0x6e, 0x79, 0x5f, 0x76, 0x34, 0x2f, 0x62, 0x61, 0x74, 0x63,
//   0x68, 0x5f, 0x6e, 0x6f, 0x72, 0x6d, 0x61, 0x6c, 0x69, 0x7a, 0x61, 0x74,
//   0x69, 0x6f, 0x6e, 0x5f, 0x31, 0x39, 0x2f, 0x46, 0x75, 0x73, 0x65, 0x64,
//   0x42, 0x61, 0x74, 0x63, 0x68, 0x4e, 0x6f, 0x72, 0x6d, 0x56, 0x33, 0x3b,
//   0x47, 0x68, 0x6f, 0x73, 0x74, 0x54, 0x69, 0x6e, 0x79, 0x5f, 0x76, 0x34,
//   0x2f, 0x63, 0x6f, 0x6e, 0x76, 0x32, 0x64, 0x5f, 0x31, 0x31, 0x2f, 0x43,
//   0x6f, 0x6e, 0x76, 0x32, 0x44, 0x00, 0x00, 0x00, 0x04, 0x00, 0x00, 0x00,
//   0x01, 0x00, 0x00, 0x00, 0x05, 0x00, 0x00, 0x00, 0x05, 0x00, 0x00, 0x00,
//   0x0e, 0x00, 0x00, 0x00, 0x9a, 0xd3, 0xff, 0xff, 0x00, 0x00, 0x00, 0x01,
//   0x14, 0x00, 0x00, 0x00, 0x24, 0x00, 0x00, 0x00, 0x24, 0x00, 0x00, 0x00,
//   0x59, 0x00, 0x00, 0x00, 0x38, 0x00, 0x00, 0x00, 0x04, 0x00, 0x00, 0x00,
//   0xff, 0xff, 0xff, 0xff, 0x05, 0x00, 0x00, 0x00, 0x05, 0x00, 0x00, 0x00,
//   0x0e, 0x00, 0x00, 0x00, 0x90, 0xd2, 0xff, 0xff, 0x16, 0x00, 0x00, 0x00,
//   0x47, 0x68, 0x6f, 0x73, 0x74, 0x54, 0x69, 0x6e, 0x79, 0x5f, 0x76, 0x34,
//   0x2f, 0x61, 0x64, 0x64, 0x5f, 0x33, 0x2f, 0x61, 0x64, 0x64, 0x00, 0x00,
//   0x04, 0x00, 0x00, 0x00, 0x01, 0x00, 0x00, 0x00, 0x05, 0x00, 0x00, 0x00,
//   0x05, 0x00, 0x00, 0x00, 0x0e, 0x00, 0x00, 0x00, 0xfe, 0xd3, 0xff, 0xff,
//   0x00, 0x00, 0x00, 0x01, 0x14, 0x00, 0x00, 0x00, 0x24, 0x00, 0x00, 0x00,
//   0x24, 0x00, 0x00, 0x00, 0x58, 0x00, 0x00, 0x00, 0x44, 0x00, 0x00, 0x00,
//   0x04, 0x00, 0x00, 0x00, 0xff, 0xff, 0xff, 0xff, 0x05, 0x00, 0x00, 0x00,
//   0x05, 0x00, 0x00, 0x00, 0x0e, 0x00, 0x00, 0x00, 0xf4, 0xd2, 0xff, 0xff,
//   0x21, 0x00, 0x00, 0x00, 0x47, 0x68, 0x6f, 0x73, 0x74, 0x54, 0x69, 0x6e,
//   0x79, 0x5f, 0x76, 0x34, 0x2f, 0x63, 0x6f, 0x6e, 0x63, 0x61, 0x74, 0x65,
//   0x6e, 0x61, 0x74, 0x65, 0x5f, 0x35, 0x2f, 0x63, 0x6f, 0x6e, 0x63, 0x61,
//   0x74, 0x00, 0x00, 0x00, 0x04, 0x00, 0x00, 0x00, 0x01, 0x00, 0x00, 0x00,
//   0x05, 0x00, 0x00, 0x00, 0x05, 0x00, 0x00, 0x00, 0x0e, 0x00, 0x00, 0x00,
//   0x6e, 0xd4, 0xff, 0xff, 0x00, 0x00, 0x00, 0x01, 0x14, 0x00, 0x00, 0x00,
//   0x24, 0x00, 0x00, 0x00, 0x24, 0x00, 0x00, 0x00, 0x57, 0x00, 0x00, 0x00,
//   0x48, 0x00, 0x00, 0x00, 0x04, 0x00, 0x00, 0x00, 0xff, 0xff, 0xff, 0xff,
//   0x05, 0x00, 0x00, 0x00, 0x05, 0x00, 0x00, 0x00, 0x05, 0x00, 0x00, 0x00,
//   0x64, 0xd3, 0xff, 0xff, 0x24, 0x00, 0x00, 0x00, 0x47, 0x68, 0x6f, 0x73,
//   0x74, 0x54, 0x69, 0x6e, 0x79, 0x5f, 0x76, 0x34, 0x2f, 0x6c, 0x61, 0x6d,
//   0x62, 0x64, 0x61, 0x5f, 0x35, 0x2f, 0x73, 0x74, 0x72, 0x69, 0x64, 0x65,
//   0x64, 0x5f, 0x73, 0x6c, 0x69, 0x63, 0x65, 0x33, 0x00, 0x00, 0x00, 0x00,
//   0x04, 0x00, 0x00, 0x00, 0x01, 0x00, 0x00, 0x00, 0x05, 0x00, 0x00, 0x00,
//   0x05, 0x00, 0x00, 0x00, 0x05, 0x00, 0x00, 0x00, 0xe2, 0xd4, 0xff, 0xff,
//   0x00, 0x00, 0x00, 0x01, 0x14, 0x00, 0x00, 0x00, 0x24, 0x00, 0x00, 0x00,
//   0x24, 0x00, 0x00, 0x00, 0x56, 0x00, 0x00, 0x00, 0x9c, 0x00, 0x00, 0x00,
//   0x04, 0x00, 0x00, 0x00, 0xff, 0xff, 0xff, 0xff, 0x05, 0x00, 0x00, 0x00,
//   0x05, 0x00, 0x00, 0x00, 0x09, 0x00, 0x00, 0x00, 0xd8, 0xd3, 0xff, 0xff,
//   0x79, 0x00, 0x00, 0x00, 0x47, 0x68, 0x6f, 0x73, 0x74, 0x54, 0x69, 0x6e,
//   0x79, 0x5f, 0x76, 0x34, 0x2f, 0x72, 0x65, 0x5f, 0x6c, 0x75, 0x5f, 0x31,
//   0x36, 0x2f, 0x52, 0x65, 0x6c, 0x75, 0x3b, 0x47, 0x68, 0x6f, 0x73, 0x74,
//   0x54, 0x69, 0x6e, 0x79, 0x5f, 0x76, 0x34, 0x2f, 0x62, 0x61, 0x74, 0x63,
//   0x68, 0x5f, 0x6e, 0x6f, 0x72, 0x6d, 0x61, 0x6c, 0x69, 0x7a, 0x61, 0x74,
//   0x69, 0x6f, 0x6e, 0x5f, 0x31, 0x37, 0x2f, 0x46, 0x75, 0x73, 0x65, 0x64,
//   0x42, 0x61, 0x74, 0x63, 0x68, 0x4e, 0x6f, 0x72, 0x6d, 0x56, 0x33, 0x3b,
//   0x47, 0x68, 0x6f, 0x73, 0x74, 0x54, 0x69, 0x6e, 0x79, 0x5f, 0x76, 0x34,
//   0x2f, 0x64, 0x65, 0x70, 0x74, 0x68, 0x77, 0x69, 0x73, 0x65, 0x5f, 0x63,
//   0x6f, 0x6e, 0x76, 0x32, 0x64, 0x5f, 0x37, 0x2f, 0x64, 0x65, 0x70, 0x74,
//   0x68, 0x77, 0x69, 0x73, 0x65, 0x00, 0x00, 0x00, 0x04, 0x00, 0x00, 0x00,
//   0x01, 0x00, 0x00, 0x00, 0x05, 0x00, 0x00, 0x00, 0x05, 0x00, 0x00, 0x00,
//   0x09, 0x00, 0x00, 0x00, 0xaa, 0xd5, 0xff, 0xff, 0x00, 0x00, 0x00, 0x01,
//   0x14, 0x00, 0x00, 0x00, 0x24, 0x00, 0x00, 0x00, 0x24, 0x00, 0x00, 0x00,
//   0x55, 0x00, 0x00, 0x00, 0xb8, 0x00, 0x00, 0x00, 0x04, 0x00, 0x00, 0x00,
//   0xff, 0xff, 0xff, 0xff, 0x05, 0x00, 0x00, 0x00, 0x05, 0x00, 0x00, 0x00,
//   0x09, 0x00, 0x00, 0x00, 0xa0, 0xd4, 0xff, 0xff, 0x96, 0x00, 0x00, 0x00,
//   0x47, 0x68, 0x6f, 0x73, 0x74, 0x54, 0x69, 0x6e, 0x79, 0x5f, 0x76, 0x34,
//   0x2f, 0x72, 0x65, 0x5f, 0x6c, 0x75, 0x5f, 0x31, 0x35, 0x2f, 0x52, 0x65,
//   0x6c, 0x75, 0x3b, 0x47, 0x68, 0x6f, 0x73, 0x74, 0x54, 0x69, 0x6e, 0x79,
//   0x5f, 0x76, 0x34, 0x2f, 0x62, 0x61, 0x74, 0x63, 0x68, 0x5f, 0x6e, 0x6f,
//   0x72, 0x6d, 0x61, 0x6c, 0x69, 0x7a, 0x61, 0x74, 0x69, 0x6f, 0x6e, 0x5f,
//   0x31, 0x36, 0x2f, 0x46, 0x75, 0x73, 0x65, 0x64, 0x42, 0x61, 0x74, 0x63,
//   0x68, 0x4e, 0x6f, 0x72, 0x6d, 0x56, 0x33, 0x3b, 0x47, 0x68, 0x6f, 0x73,
//   0x74, 0x54, 0x69, 0x6e, 0x79, 0x5f, 0x76, 0x34, 0x2f, 0x64, 0x65, 0x70,
//   0x74, 0x68, 0x77, 0x69, 0x73, 0x65, 0x5f, 0x63, 0x6f, 0x6e, 0x76, 0x32,
//   0x64, 0x5f, 0x37, 0x2f, 0x64, 0x65, 0x70, 0x74, 0x68, 0x77, 0x69, 0x73,
//   0x65, 0x3b, 0x47, 0x68, 0x6f, 0x73, 0x74, 0x54, 0x69, 0x6e, 0x79, 0x5f,
//   0x76, 0x34, 0x2f, 0x63, 0x6f, 0x6e, 0x76, 0x32, 0x64, 0x5f, 0x39, 0x2f,
//   0x43, 0x6f, 0x6e, 0x76, 0x32, 0x44, 0x00, 0x00, 0x04, 0x00, 0x00, 0x00,
//   0x01, 0x00, 0x00, 0x00, 0x05, 0x00, 0x00, 0x00, 0x05, 0x00, 0x00, 0x00,
//   0x09, 0x00, 0x00, 0x00, 0x8e, 0xd6, 0xff, 0xff, 0x00, 0x00, 0x00, 0x01,
//   0x14, 0x00, 0x00, 0x00, 0x24, 0x00, 0x00, 0x00, 0x24, 0x00, 0x00, 0x00,
//   0x54, 0x00, 0x00, 0x00, 0xb8, 0x00, 0x00, 0x00, 0x04, 0x00, 0x00, 0x00,
//   0xff, 0xff, 0xff, 0xff, 0x05, 0x00, 0x00, 0x00, 0x05, 0x00, 0x00, 0x00,
//   0x0e, 0x00, 0x00, 0x00, 0x84, 0xd5, 0xff, 0xff, 0x97, 0x00, 0x00, 0x00,
//   0x47, 0x68, 0x6f, 0x73, 0x74, 0x54, 0x69, 0x6e, 0x79, 0x5f, 0x76, 0x34,
//   0x2f, 0x72, 0x65, 0x5f, 0x6c, 0x75, 0x5f, 0x31, 0x34, 0x2f, 0x52, 0x65,
//   0x6c, 0x75, 0x3b, 0x47, 0x68, 0x6f, 0x73, 0x74, 0x54, 0x69, 0x6e, 0x79,
//   0x5f, 0x76, 0x34, 0x2f, 0x62, 0x61, 0x74, 0x63, 0x68, 0x5f, 0x6e, 0x6f,
//   0x72, 0x6d, 0x61, 0x6c, 0x69, 0x7a, 0x61, 0x74, 0x69, 0x6f, 0x6e, 0x5f,
//   0x31, 0x35, 0x2f, 0x46, 0x75, 0x73, 0x65, 0x64, 0x42, 0x61, 0x74, 0x63,
//   0x68, 0x4e, 0x6f, 0x72, 0x6d, 0x56, 0x33, 0x3b, 0x47, 0x68, 0x6f, 0x73,
//   0x74, 0x54, 0x69, 0x6e, 0x79, 0x5f, 0x76, 0x34, 0x2f, 0x63, 0x6f, 0x6e,
//   0x76, 0x32, 0x64, 0x5f, 0x31, 0x31, 0x2f, 0x43, 0x6f, 0x6e, 0x76, 0x32,
//   0x44, 0x3b, 0x47, 0x68, 0x6f, 0x73, 0x74, 0x54, 0x69, 0x6e, 0x79, 0x5f,
//   0x76, 0x34, 0x2f, 0x64, 0x65, 0x70, 0x74, 0x68, 0x77, 0x69, 0x73, 0x65,
//   0x5f, 0x63, 0x6f, 0x6e, 0x76, 0x32, 0x64, 0x5f, 0x36, 0x2f, 0x64, 0x65,
//   0x70, 0x74, 0x68, 0x77, 0x69, 0x73, 0x65, 0x00, 0x04, 0x00, 0x00, 0x00,
//   0x01, 0x00, 0x00, 0x00, 0x05, 0x00, 0x00, 0x00, 0x05, 0x00, 0x00, 0x00,
//   0x0e, 0x00, 0x00, 0x00, 0x72, 0xd7, 0xff, 0xff, 0x00, 0x00, 0x00, 0x01,
//   0x14, 0x00, 0x00, 0x00, 0x24, 0x00, 0x00, 0x00, 0x24, 0x00, 0x00, 0x00,
//   0x53, 0x00, 0x00, 0x00, 0x44, 0x00, 0x00, 0x00, 0x04, 0x00, 0x00, 0x00,
//   0xff, 0xff, 0xff, 0xff, 0x0a, 0x00, 0x00, 0x00, 0x0a, 0x00, 0x00, 0x00,
//   0x0e, 0x00, 0x00, 0x00, 0x68, 0xd6, 0xff, 0xff, 0x21, 0x00, 0x00, 0x00,
//   0x47, 0x68, 0x6f, 0x73, 0x74, 0x54, 0x69, 0x6e, 0x79, 0x5f, 0x76, 0x34,
//   0x2f, 0x63, 0x6f, 0x6e, 0x63, 0x61, 0x74, 0x65, 0x6e, 0x61, 0x74, 0x65,
//   0x5f, 0x34, 0x2f, 0x63, 0x6f, 0x6e, 0x63, 0x61, 0x74, 0x00, 0x00, 0x00,
//   0x04, 0x00, 0x00, 0x00, 0x01, 0x00, 0x00, 0x00, 0x0a, 0x00, 0x00, 0x00,
//   0x0a, 0x00, 0x00, 0x00, 0x0e, 0x00, 0x00, 0x00, 0xe2, 0xd7, 0xff, 0xff,
//   0x00, 0x00, 0x00, 0x01, 0x14, 0x00, 0x00, 0x00, 0x24, 0x00, 0x00, 0x00,
//   0x24, 0x00, 0x00, 0x00, 0x52, 0x00, 0x00, 0x00, 0x44, 0x00, 0x00, 0x00,
//   0x04, 0x00, 0x00, 0x00, 0xff, 0xff, 0xff, 0xff, 0x0a, 0x00, 0x00, 0x00,
//   0x0a, 0x00, 0x00, 0x00, 0x05, 0x00, 0x00, 0x00, 0xd8, 0xd6, 0xff, 0xff,
//   0x23, 0x00, 0x00, 0x00, 0x47, 0x68, 0x6f, 0x73, 0x74, 0x54, 0x69, 0x6e,
//   0x79, 0x5f, 0x76, 0x34, 0x2f, 0x6c, 0x61, 0x6d, 0x62, 0x64, 0x61, 0x5f,
//   0x34, 0x2f, 0x73, 0x74, 0x72, 0x69, 0x64, 0x65, 0x64, 0x5f, 0x73, 0x6c,
//   0x69, 0x63, 0x65, 0x00, 0x04, 0x00, 0x00, 0x00, 0x01, 0x00, 0x00, 0x00,
//   0x0a, 0x00, 0x00, 0x00, 0x0a, 0x00, 0x00, 0x00, 0x05, 0x00, 0x00, 0x00,
//   0x52, 0xd8, 0xff, 0xff, 0x00, 0x00, 0x00, 0x01, 0x14, 0x00, 0x00, 0x00,
//   0x24, 0x00, 0x00, 0x00, 0x24, 0x00, 0x00, 0x00, 0x51, 0x00, 0x00, 0x00,
//   0xc4, 0x00, 0x00, 0x00, 0x04, 0x00, 0x00, 0x00, 0xff, 0xff, 0xff, 0xff,
//   0x0a, 0x00, 0x00, 0x00, 0x0a, 0x00, 0x00, 0x00, 0x09, 0x00, 0x00, 0x00,
//   0x48, 0xd7, 0xff, 0xff, 0xa3, 0x00, 0x00, 0x00, 0x47, 0x68, 0x6f, 0x73,
//   0x74, 0x54, 0x69, 0x6e, 0x79, 0x5f, 0x76, 0x34, 0x2f, 0x72, 0x65, 0x5f,
//   0x6c, 0x75, 0x5f, 0x31, 0x33, 0x2f, 0x52, 0x65, 0x6c, 0x75, 0x3b, 0x47,
//   0x68, 0x6f, 0x73, 0x74, 0x54, 0x69, 0x6e, 0x79, 0x5f, 0x76, 0x34, 0x2f,
//   0x62, 0x61, 0x74, 0x63, 0x68, 0x5f, 0x6e, 0x6f, 0x72, 0x6d, 0x61, 0x6c,
//   0x69, 0x7a, 0x61, 0x74, 0x69, 0x6f, 0x6e, 0x5f, 0x31, 0x34, 0x2f, 0x46,
//   0x75, 0x73, 0x65, 0x64, 0x42, 0x61, 0x74, 0x63, 0x68, 0x4e, 0x6f, 0x72,
//   0x6d, 0x56, 0x33, 0x3b, 0x47, 0x68, 0x6f, 0x73, 0x74, 0x54, 0x69, 0x6e,
//   0x79, 0x5f, 0x76, 0x34, 0x2f, 0x64, 0x65, 0x70, 0x74, 0x68, 0x77, 0x69,
//   0x73, 0x65, 0x5f, 0x63, 0x6f, 0x6e, 0x76, 0x32, 0x64, 0x5f, 0x37, 0x2f,
//   0x64, 0x65, 0x70, 0x74, 0x68, 0x77, 0x69, 0x73, 0x65, 0x3b, 0x47, 0x68,
//   0x6f, 0x73, 0x74, 0x54, 0x69, 0x6e, 0x79, 0x5f, 0x76, 0x34, 0x2f, 0x64,
//   0x65, 0x70, 0x74, 0x68, 0x77, 0x69, 0x73, 0x65, 0x5f, 0x63, 0x6f, 0x6e,
